/*
 * Copyright (c) 2024 EdgeImpulse Inc.
 *
 * Generated by Edge Impulse and licensed under the applicable Edge Impulse
 * Terms of Service. Community and Professional Terms of Service
 * (https://docs.edgeimpulse.com/page/terms-of-service) or Enterprise Terms of
 * Service (https://docs.edgeimpulse.com/page/enterprise-terms-of-service),
 * according to your product plan subscription (the “License”).
 *
 * This software, documentation and other associated files (collectively referred
 * to as the “Software”) is a single SDK variation generated by the Edge Impulse
 * platform and requires an active paid Edge Impulse subscription to use this
 * Software for any purpose.
 *
 * You may NOT use this Software unless you have an active Edge Impulse subscription
 * that meets the eligibility requirements for the applicable License, subject to
 * your full and continued compliance with the terms and conditions of the License,
 * including without limitation any usage restrictions under the applicable License.
 *
 * If you do not have an active Edge Impulse product plan subscription, or if use
 * of this Software exceeds the usage limitations of your Edge Impulse product plan
 * subscription, you are not permitted to use this Software and must immediately
 * delete and erase all copies of this Software within your control or possession.
 * Edge Impulse reserves all rights and remedies available to enforce its rights.
 *
 * Unless required by applicable law or agreed to in writing, the Software is
 * distributed on an "AS IS" BASIS, WITHOUT WARRANTIES OR CONDITIONS OF ANY KIND,
 * either express or implied. See the License for the specific language governing
 * permissions, disclaimers and limitations under the License.
 */

#ifndef _EI_CLASSIFIER_TFLITE_LEARN_3_H_
#define _EI_CLASSIFIER_TFLITE_LEARN_3_H_

#define EI_CLASSIFIER_TFLITE_LEARN_3_ARENA_SIZE     10624
const size_t tflite_learn_3_arena_size = 10624;

#ifdef EI_CLASSIFIER_TFLITE_ARENA_SIZE
#if EI_CLASSIFIER_TFLITE_ARENA_SIZE < EI_CLASSIFIER_TFLITE_LEARN_3_ARENA_SIZE
#undef EI_CLASSIFIER_TFLITE_ARENA_SIZE
#define EI_CLASSIFIER_TFLITE_ARENA_SIZE EI_CLASSIFIER_TFLITE_LEARN_3_ARENA_SIZE
#endif // #if EI_CLASSIFIER_TFLITE_ARENA_SIZE < EI_CLASSIFIER_TFLITE_LEARN_3_ARENA_SIZE
#else
#define EI_CLASSIFIER_TFLITE_ARENA_SIZE EI_CLASSIFIER_TFLITE_LEARN_3_ARENA_SIZE
#endif // #ifdef EI_CLASSIFIER_TFLITE_ARENA_SIZE

#if defined __GNUC__
#define ALIGN(X) __attribute__((aligned(X)))
#elif defined _MSC_VER
#define ALIGN(X) __declspec(align(X))
#elif defined __TASKING__
#define ALIGN(X) __align(X)
#else
#define ALIGN(X)
#endif

ALIGN(16) const unsigned char tflite_learn_3[] = {
  0x1c, 0x00, 0x00, 0x00, 0x54, 0x46, 0x4c, 0x33, 0x14, 0x00, 0x20, 0x00,
  0x1c, 0x00, 0x18, 0x00, 0x14, 0x00, 0x10, 0x00, 0x0c, 0x00, 0x00, 0x00,
  0x08, 0x00, 0x04, 0x00, 0x14, 0x00, 0x00, 0x00, 0x1c, 0x00, 0x00, 0x00,
  0x8c, 0x00, 0x00, 0x00, 0xe4, 0x00, 0x00, 0x00, 0x98, 0x14, 0x00, 0x00,
  0xa8, 0x14, 0x00, 0x00, 0x50, 0x20, 0x00, 0x00, 0x03, 0x00, 0x00, 0x00,
  0x01, 0x00, 0x00, 0x00, 0x10, 0x00, 0x00, 0x00, 0x00, 0x00, 0x0a, 0x00,
  0x10, 0x00, 0x0c, 0x00, 0x08, 0x00, 0x04, 0x00, 0x0a, 0x00, 0x00, 0x00,
  0x0c, 0x00, 0x00, 0x00, 0x1c, 0x00, 0x00, 0x00, 0x3c, 0x00, 0x00, 0x00,
  0x0f, 0x00, 0x00, 0x00, 0x73, 0x65, 0x72, 0x76, 0x69, 0x6e, 0x67, 0x5f,
  0x64, 0x65, 0x66, 0x61, 0x75, 0x6c, 0x74, 0x00, 0x01, 0x00, 0x00, 0x00,
  0x04, 0x00, 0x00, 0x00, 0x9c, 0xff, 0xff, 0xff, 0x16, 0x00, 0x00, 0x00,
  0x04, 0x00, 0x00, 0x00, 0x08, 0x00, 0x00, 0x00, 0x6f, 0x75, 0x74, 0x70,
  0x75, 0x74, 0x5f, 0x30, 0x00, 0x00, 0x00, 0x00, 0x01, 0x00, 0x00, 0x00,
  0x04, 0x00, 0x00, 0x00, 0x42, 0xeb, 0xff, 0xff, 0x04, 0x00, 0x00, 0x00,
  0x01, 0x00, 0x00, 0x00, 0x78, 0x00, 0x00, 0x00, 0x02, 0x00, 0x00, 0x00,
  0x34, 0x00, 0x00, 0x00, 0x04, 0x00, 0x00, 0x00, 0xdc, 0xff, 0xff, 0xff,
  0x19, 0x00, 0x00, 0x00, 0x04, 0x00, 0x00, 0x00, 0x13, 0x00, 0x00, 0x00,
  0x43, 0x4f, 0x4e, 0x56, 0x45, 0x52, 0x53, 0x49, 0x4f, 0x4e, 0x5f, 0x4d,
  0x45, 0x54, 0x41, 0x44, 0x41, 0x54, 0x41, 0x00, 0x08, 0x00, 0x0c, 0x00,
  0x08, 0x00, 0x04, 0x00, 0x08, 0x00, 0x00, 0x00, 0x18, 0x00, 0x00, 0x00,
  0x04, 0x00, 0x00, 0x00, 0x13, 0x00, 0x00, 0x00, 0x6d, 0x69, 0x6e, 0x5f,
  0x72, 0x75, 0x6e, 0x74, 0x69, 0x6d, 0x65, 0x5f, 0x76, 0x65, 0x72, 0x73,
  0x69, 0x6f, 0x6e, 0x00, 0x1a, 0x00, 0x00, 0x00, 0xb0, 0x13, 0x00, 0x00,
  0xa8, 0x13, 0x00, 0x00, 0x78, 0x13, 0x00, 0x00, 0x28, 0x13, 0x00, 0x00,
  0x08, 0x13, 0x00, 0x00, 0xe8, 0x12, 0x00, 0x00, 0xc8, 0x12, 0x00, 0x00,
  0xa8, 0x12, 0x00, 0x00, 0xb8, 0x0d, 0x00, 0x00, 0xa8, 0x07, 0x00, 0x00,
  0x90, 0x07, 0x00, 0x00, 0x78, 0x07, 0x00, 0x00, 0xe8, 0x00, 0x00, 0x00,
  0xe0, 0x00, 0x00, 0x00, 0xd8, 0x00, 0x00, 0x00, 0xd0, 0x00, 0x00, 0x00,
  0xc8, 0x00, 0x00, 0x00, 0xc0, 0x00, 0x00, 0x00, 0xb8, 0x00, 0x00, 0x00,
  0xb0, 0x00, 0x00, 0x00, 0xa8, 0x00, 0x00, 0x00, 0xa0, 0x00, 0x00, 0x00,
  0x98, 0x00, 0x00, 0x00, 0x90, 0x00, 0x00, 0x00, 0x70, 0x00, 0x00, 0x00,
  0x04, 0x00, 0x00, 0x00, 0x1a, 0xec, 0xff, 0xff, 0x04, 0x00, 0x00, 0x00,
  0x5c, 0x00, 0x00, 0x00, 0x0c, 0x00, 0x00, 0x00, 0x08, 0x00, 0x0e, 0x00,
  0x08, 0x00, 0x04, 0x00, 0x08, 0x00, 0x00, 0x00, 0x14, 0x00, 0x00, 0x00,
  0x2c, 0x00, 0x00, 0x00, 0x00, 0x00, 0x0a, 0x00, 0x0c, 0x00, 0x08, 0x00,
  0x00, 0x00, 0x07, 0x00, 0x0a, 0x00, 0x00, 0x00, 0x00, 0x00, 0x00, 0x01,
  0x04, 0x00, 0x00, 0x00, 0x00, 0x00, 0x00, 0x00, 0x00, 0x00, 0x0a, 0x00,
  0x10, 0x00, 0x0c, 0x00, 0x08, 0x00, 0x04, 0x00, 0x0a, 0x00, 0x00, 0x00,
  0x03, 0x00, 0x00, 0x00, 0x02, 0x00, 0x00, 0x00, 0x04, 0x00, 0x00, 0x00,
  0x06, 0x00, 0x00, 0x00, 0x32, 0x2e, 0x31, 0x31, 0x2e, 0x31, 0x00, 0x00,
  0x82, 0xec, 0xff, 0xff, 0x04, 0x00, 0x00, 0x00, 0x10, 0x00, 0x00, 0x00,
  0x31, 0x2e, 0x35, 0x2e, 0x30, 0x00, 0x00, 0x00, 0x00, 0x00, 0x00, 0x00,
  0x00, 0x00, 0x00, 0x00, 0xa4, 0xe1, 0xff, 0xff, 0xa8, 0xe1, 0xff, 0xff,
  0xac, 0xe1, 0xff, 0xff, 0xb0, 0xe1, 0xff, 0xff, 0xb4, 0xe1, 0xff, 0xff,
  0xb8, 0xe1, 0xff, 0xff, 0xbc, 0xe1, 0xff, 0xff, 0xc0, 0xe1, 0xff, 0xff,
  0xc4, 0xe1, 0xff, 0xff, 0xc8, 0xe1, 0xff, 0xff, 0xcc, 0xe1, 0xff, 0xff,
  0xca, 0xec, 0xff, 0xff, 0x04, 0x00, 0x00, 0x00, 0x80, 0x06, 0x00, 0x00,
  0xc4, 0x71, 0xea, 0x3c, 0x85, 0x45, 0x8b, 0x3e, 0xff, 0x8a, 0x5e, 0x3e,
  0x0a, 0xe1, 0x46, 0x3f, 0x52, 0xbd, 0x8b, 0x3b, 0xb6, 0xe3, 0x29, 0x3e,
  0x92, 0xf6, 0xb5, 0xbe, 0xfa, 0x1b, 0xb8, 0x3d, 0x7e, 0x2e, 0x28, 0xbf,
  0xcd, 0x40, 0x83, 0xbe, 0x84, 0xfd, 0xbe, 0xbe, 0x21, 0xe9, 0x3b, 0xbe,
  0x8b, 0xbc, 0x27, 0xbe, 0x63, 0x19, 0x5f, 0x3e, 0x7b, 0x0c, 0x9f, 0xbe,
  0x6c, 0xe4, 0x88, 0x3e, 0x95, 0x3d, 0x88, 0xbd, 0xf6, 0x20, 0x5e, 0x3c,
  0x26, 0x8f, 0xc1, 0x3e, 0xb9, 0xd5, 0x85, 0x3d, 0x76, 0xaa, 0xb0, 0x3e,
  0xcb, 0x56, 0x20, 0x3e, 0xb5, 0x7e, 0x14, 0xbe, 0x67, 0xc9, 0x64, 0x3e,
  0x21, 0x8c, 0x16, 0xbf, 0x85, 0x12, 0x64, 0xbe, 0x71, 0x82, 0x84, 0xbe,
  0x83, 0xa2, 0x45, 0xbe, 0xec, 0x64, 0x74, 0xbe, 0x4a, 0x42, 0xcd, 0x3e,
  0x12, 0x10, 0x07, 0xbe, 0x4a, 0xed, 0x98, 0x3e, 0xcf, 0xc5, 0xdb, 0xbe,
  0xd5, 0x16, 0x46, 0x3e, 0x0c, 0xe6, 0xd1, 0x3e, 0x92, 0x36, 0xfa, 0x3d,
  0xf7, 0xe4, 0x7e, 0xbc, 0x9a, 0x9e, 0x55, 0xbe, 0x29, 0xe0, 0x8f, 0xbd,
  0x15, 0xf2, 0x11, 0x3f, 0xf2, 0x40, 0x9a, 0xbe, 0xd0, 0x3f, 0x37, 0xbe,
  0x01, 0xac, 0xa4, 0xbe, 0xdd, 0xb2, 0x0e, 0xbe, 0x92, 0xf6, 0x88, 0xbe,
  0xa9, 0xd1, 0x38, 0xbd, 0x49, 0x28, 0xaf, 0xbe, 0xd3, 0x3e, 0xa4, 0x3e,
  0x60, 0xfe, 0x4b, 0xbe, 0xa6, 0x84, 0xda, 0x3d, 0x8d, 0x96, 0x4c, 0x3e,
  0x0c, 0x66, 0x24, 0x3e, 0x42, 0x17, 0xfb, 0x3e, 0xcd, 0xc3, 0xb0, 0x3d,
  0x3a, 0xb4, 0x7f, 0xbe, 0xb0, 0xc3, 0x9a, 0x3e, 0x87, 0xf0, 0xca, 0xbe,
  0x5a, 0xff, 0xe0, 0xbe, 0x9c, 0x50, 0xb7, 0xbc, 0x85, 0xd3, 0x91, 0xbe,
  0x0e, 0x05, 0xc7, 0xbe, 0x37, 0x93, 0x49, 0x3e, 0xc5, 0x3e, 0xa7, 0xbe,
  0xab, 0xc1, 0xa7, 0x3e, 0x28, 0x17, 0xd9, 0xbd, 0x2b, 0x7f, 0x4c, 0x3e,
  0x79, 0x6a, 0x1c, 0x3e, 0x22, 0xd0, 0xbe, 0x3d, 0xd2, 0xee, 0x4d, 0x3e,
  0x50, 0xd8, 0x15, 0x3e, 0xb5, 0xda, 0x7e, 0xbe, 0x4c, 0x2e, 0x78, 0x3e,
  0xad, 0xb0, 0xb1, 0xbc, 0xdb, 0xed, 0x81, 0xbe, 0x84, 0x1c, 0x15, 0xbf,
  0x81, 0xd9, 0x0b, 0xbf, 0x7e, 0xd3, 0x84, 0xbe, 0xd3, 0x44, 0x19, 0x3e,
  0xe6, 0x7c, 0xb5, 0xbe, 0x43, 0x49, 0x0a, 0x3e, 0x26, 0xbd, 0xb0, 0xbe,
  0xd6, 0x51, 0x82, 0xbc, 0xb7, 0xdb, 0xff, 0x3e, 0xee, 0x46, 0x2d, 0x3e,
  0x47, 0x94, 0xe8, 0x3e, 0x00, 0x5c, 0x9e, 0x3e, 0xf6, 0x4b, 0x00, 0xbe,
  0x8e, 0x19, 0x63, 0xbc, 0xeb, 0x6d, 0xde, 0x3c, 0xc9, 0x4f, 0x4a, 0xbe,
  0x2a, 0x14, 0xff, 0xbd, 0xe7, 0xd1, 0xa2, 0xbe, 0xf1, 0x16, 0x97, 0xbe,
  0xf3, 0xc2, 0x2b, 0x3e, 0xd9, 0xd4, 0xf8, 0xbe, 0x64, 0x22, 0xca, 0x3e,
  0x14, 0x83, 0x21, 0xbd, 0xb2, 0xa8, 0x76, 0x3e, 0x83, 0x75, 0x05, 0x3f,
  0x4b, 0xe9, 0x88, 0xbe, 0x46, 0x57, 0xe9, 0x3e, 0x39, 0x49, 0x89, 0x3e,
  0xd8, 0xa6, 0xd0, 0xbd, 0xd8, 0xd0, 0x91, 0x3e, 0x88, 0x84, 0x84, 0xbe,
  0x10, 0xff, 0x2e, 0xbc, 0xaa, 0x48, 0x9a, 0xbe, 0x53, 0xc2, 0x9c, 0xbe,
  0x80, 0xeb, 0xd2, 0xbe, 0x9b, 0xe5, 0x08, 0x3e, 0xcd, 0xdb, 0x28, 0xbe,
  0x7f, 0xef, 0x85, 0x3e, 0x9a, 0x2d, 0x67, 0xbe, 0x31, 0x8a, 0x9b, 0x3e,
  0x9b, 0x7c, 0x76, 0x3e, 0x11, 0x42, 0xc6, 0xbe, 0x54, 0x11, 0x9b, 0x3e,
  0x95, 0xa7, 0xc8, 0x3e, 0xdb, 0x03, 0x07, 0xbe, 0x44, 0x28, 0x99, 0x3a,
  0x0a, 0x55, 0x83, 0xbe, 0x5a, 0xfd, 0x83, 0xbe, 0x5f, 0xe5, 0x8e, 0xbe,
  0x8b, 0x49, 0x54, 0xbe, 0xca, 0x68, 0x92, 0xbe, 0x84, 0x14, 0xc3, 0x3e,
  0x7b, 0x11, 0x4b, 0xbd, 0x77, 0xc4, 0xa7, 0x3c, 0xf9, 0x3c, 0x1d, 0xbe,
  0xca, 0x1a, 0x88, 0x3e, 0x14, 0x86, 0x83, 0x3e, 0x1c, 0xfc, 0x7f, 0xbd,
  0x07, 0x8e, 0x2f, 0xbd, 0x65, 0x13, 0x04, 0x3f, 0x20, 0xc1, 0x0d, 0xbe,
  0x8a, 0x6c, 0xf9, 0x3d, 0x7b, 0xe6, 0xa4, 0xbe, 0x38, 0x1f, 0x05, 0xbe,
  0x58, 0x3f, 0xa0, 0xbe, 0x52, 0x03, 0x5b, 0xbe, 0x53, 0xcc, 0xc6, 0xbd,
  0x7d, 0x83, 0x66, 0x3e, 0x3b, 0xf0, 0xb0, 0xbe, 0xac, 0xf5, 0x15, 0x3e,
  0x6d, 0x02, 0xa8, 0xbe, 0x35, 0xdf, 0x61, 0x3e, 0x3f, 0x18, 0xf3, 0xbc,
  0x12, 0x88, 0xc0, 0xbc, 0x03, 0xbb, 0x91, 0x3e, 0x6b, 0xb5, 0xe6, 0x3e,
  0xf2, 0x3f, 0x85, 0xbe, 0x5d, 0x72, 0xd9, 0x3e, 0xae, 0xcc, 0x49, 0xbd,
  0x62, 0xf3, 0x39, 0xbe, 0x03, 0x12, 0x97, 0xbd, 0xc6, 0x36, 0x8e, 0xbe,
  0xfb, 0x67, 0xbc, 0xbe, 0xc8, 0x23, 0x00, 0x3f, 0x14, 0x1a, 0x24, 0xbe,
  0x0b, 0x99, 0x20, 0xbc, 0xef, 0x95, 0xed, 0xbd, 0xed, 0xf2, 0x13, 0x3e,
  0x78, 0xc3, 0x01, 0x3e, 0xcf, 0xb6, 0xac, 0xbc, 0x64, 0x33, 0x08, 0x3e,
  0xbe, 0xde, 0x60, 0x3d, 0x67, 0x08, 0x62, 0xbd, 0x78, 0x4f, 0xe7, 0x3e,
  0x8e, 0xb9, 0xcd, 0xbd, 0xfc, 0xf1, 0x5a, 0xbe, 0x91, 0xdc, 0x8d, 0xbe,
  0x42, 0x6d, 0x1f, 0xbe, 0xa0, 0x6c, 0x86, 0xbe, 0x54, 0xd8, 0xcb, 0x3e,
  0xbf, 0xbf, 0x1d, 0xbd, 0x95, 0x99, 0x51, 0x3e, 0x6b, 0x41, 0xe4, 0xbd,
  0x04, 0xa8, 0x3b, 0x3e, 0x30, 0xbd, 0xe4, 0x3e, 0x03, 0xab, 0x45, 0xbb,
  0xff, 0x99, 0x8e, 0x3c, 0x23, 0x7b, 0x7f, 0x3e, 0xb7, 0xe8, 0x88, 0xbe,
  0x22, 0x12, 0x76, 0x3e, 0x3d, 0xa8, 0x02, 0xbe, 0x64, 0x99, 0xc7, 0xbe,
  0xb1, 0x4e, 0x45, 0xbe, 0x8f, 0xb3, 0x83, 0xbe, 0xec, 0xb6, 0xec, 0xbe,
  0x8c, 0x73, 0x22, 0x3f, 0x56, 0x72, 0x89, 0xbe, 0x43, 0x41, 0xd4, 0x3d,
  0x68, 0x2a, 0x8e, 0xbe, 0x56, 0xf1, 0xbb, 0x3e, 0xd3, 0xc4, 0xf8, 0x3d,
  0xdb, 0xfe, 0x76, 0xbb, 0xa3, 0x1c, 0x10, 0x3c, 0x41, 0x3c, 0x9b, 0x3e,
  0x34, 0xaa, 0xfc, 0xbe, 0x35, 0x21, 0x94, 0xbe, 0x4a, 0x6d, 0xa4, 0xbe,
  0xdf, 0x88, 0xa4, 0xbe, 0x7a, 0xda, 0x5b, 0x3c, 0xba, 0x33, 0xbb, 0xbe,
  0xa9, 0xae, 0x37, 0xbf, 0xd9, 0x0e, 0x74, 0x3c, 0x13, 0xaa, 0xc5, 0xbe,
  0xb1, 0x68, 0x8c, 0x3e, 0x44, 0xa2, 0x25, 0x3e, 0x5a, 0x0f, 0xc7, 0xbe,
  0x8c, 0xfb, 0x1a, 0xbe, 0x92, 0x45, 0x2a, 0xbf, 0xc6, 0xdf, 0x03, 0x3d,
  0x9d, 0x8c, 0x8b, 0xbe, 0xb1, 0x51, 0x0f, 0x3e, 0x0a, 0xa8, 0x22, 0xbe,
  0x36, 0x4c, 0x0b, 0x3f, 0x26, 0x64, 0xd8, 0x3e, 0xef, 0x1f, 0xd8, 0x3d,
  0x1b, 0x4f, 0xba, 0xbc, 0x05, 0xa3, 0x62, 0x3c, 0x8c, 0x3d, 0x63, 0x3d,
  0x89, 0xa8, 0xa4, 0x3e, 0x2c, 0x8f, 0x69, 0xbe, 0xc0, 0x77, 0x2f, 0x3e,
  0x82, 0x8d, 0x76, 0xbd, 0x9a, 0x7a, 0x8f, 0xbe, 0xdd, 0x3f, 0xa5, 0xbe,
  0xc1, 0x35, 0x0f, 0xbe, 0x5c, 0x24, 0xff, 0xbd, 0xf2, 0x7e, 0x2e, 0x3e,
  0xb7, 0x8b, 0xaf, 0xbd, 0x45, 0x12, 0x1e, 0x3f, 0x86, 0xe6, 0x95, 0x3d,
  0xa0, 0xe4, 0xc0, 0x3e, 0x5e, 0xd3, 0xfa, 0x3d, 0xc5, 0x39, 0x98, 0x3e,
  0x18, 0xbe, 0x4a, 0xbe, 0x3e, 0x18, 0x87, 0x3d, 0x60, 0x77, 0xa4, 0xbb,
  0xf1, 0xe3, 0xf8, 0x3e, 0x52, 0xa3, 0x47, 0xbc, 0xc7, 0x13, 0x99, 0xbe,
  0xc3, 0xb7, 0xa3, 0xbe, 0x7e, 0x3b, 0x9d, 0xbd, 0x98, 0xbe, 0xc1, 0xbd,
  0x49, 0x2c, 0x66, 0x3e, 0x48, 0x0a, 0x9e, 0xbe, 0xab, 0x05, 0x6c, 0x3e,
  0x5d, 0x9e, 0xe1, 0x3e, 0xaf, 0xbc, 0x21, 0x3e, 0x28, 0xa1, 0xfc, 0x3d,
  0x17, 0xff, 0x37, 0x3e, 0xb3, 0xb6, 0x5e, 0x3e, 0xc2, 0x0d, 0x46, 0x3e,
  0x1b, 0x3c, 0xbf, 0xbe, 0x17, 0x7b, 0xaf, 0x3e, 0xef, 0xe4, 0x59, 0xbe,
  0x16, 0x9a, 0x0b, 0xbe, 0x4c, 0x31, 0xd4, 0xbe, 0xff, 0x13, 0xda, 0xbe,
  0x22, 0x14, 0xe5, 0xbd, 0xf5, 0x05, 0xf5, 0x3e, 0x15, 0x61, 0xe7, 0xbe,
  0xcc, 0x54, 0x9f, 0x3e, 0xbf, 0x5f, 0x28, 0x3e, 0x90, 0xe9, 0x84, 0x3e,
  0xb6, 0xe9, 0xd2, 0x3e, 0xd4, 0xa1, 0xa7, 0x3e, 0x87, 0x91, 0x9d, 0xbe,
  0x32, 0x9c, 0xee, 0x3d, 0x70, 0xa9, 0xc6, 0xbe, 0x59, 0xea, 0x18, 0x3e,
  0x15, 0x64, 0x1d, 0xbe, 0x12, 0x7c, 0x15, 0xbe, 0x73, 0x17, 0x88, 0xbd,
  0xfa, 0xbe, 0x88, 0xbe, 0xc9, 0x3d, 0xc6, 0xbd, 0x85, 0x01, 0xb2, 0x3d,
  0x22, 0x2c, 0x88, 0xbe, 0xd6, 0x30, 0xab, 0x3d, 0x25, 0x00, 0x8f, 0x3e,
  0x80, 0x63, 0xdf, 0x3e, 0x52, 0x87, 0xb8, 0x3e, 0xab, 0xbc, 0xef, 0x3d,
  0x03, 0x8f, 0x36, 0xbe, 0x90, 0xcb, 0xbf, 0x3e, 0x3a, 0x40, 0x41, 0xbe,
  0xdb, 0x34, 0x82, 0x3e, 0x6e, 0x29, 0x20, 0xbd, 0x90, 0x13, 0x14, 0xbf,
  0xfd, 0x4d, 0x1a, 0xbe, 0x37, 0xde, 0xf0, 0xbe, 0xaf, 0x61, 0xdd, 0xbe,
  0x77, 0xd9, 0x80, 0x3e, 0xf8, 0x4e, 0xf0, 0x3b, 0xdc, 0xe5, 0xa5, 0xbd,
  0x74, 0x70, 0x66, 0x3e, 0xad, 0x7b, 0x50, 0x3e, 0x41, 0x89, 0xc4, 0x3e,
  0x8f, 0x49, 0x84, 0x3e, 0x96, 0x2d, 0x8c, 0xbe, 0x17, 0x29, 0x7c, 0x3e,
  0xdc, 0x87, 0xb8, 0xbe, 0x67, 0xe0, 0x4c, 0x3e, 0x10, 0x40, 0x9b, 0xbd,
  0x36, 0xeb, 0x98, 0xbe, 0x8f, 0x80, 0x80, 0x3e, 0xa0, 0xcb, 0x87, 0xbe,
  0xae, 0x14, 0x6e, 0xbe, 0x9e, 0xad, 0xef, 0x3d, 0xe4, 0xed, 0x3b, 0xbe,
  0x43, 0xc2, 0x21, 0x3e, 0xab, 0xb2, 0x29, 0x3e, 0x1e, 0xcf, 0xf3, 0x3d,
  0xb7, 0x8f, 0xd8, 0x3e, 0x7a, 0x7e, 0x7f, 0x3e, 0x28, 0x90, 0x54, 0xbe,
  0xf3, 0xe4, 0x0e, 0x3e, 0x17, 0xd7, 0xc4, 0xbe, 0x3d, 0xf1, 0x45, 0x3e,
  0x08, 0xd9, 0x17, 0xbe, 0xb0, 0x38, 0x9a, 0xbe, 0xb6, 0x0d, 0x0d, 0x3f,
  0x1f, 0xe4, 0xb5, 0xbd, 0xfe, 0x8e, 0xdb, 0xbe, 0xa6, 0xb4, 0x0a, 0x3e,
  0x61, 0x46, 0x9d, 0xbe, 0x5e, 0xec, 0x08, 0x3e, 0xb4, 0x30, 0x51, 0xba,
  0x82, 0x6c, 0x96, 0x3e, 0x22, 0x51, 0x9b, 0x3e, 0xbb, 0x83, 0xe3, 0x3e,
  0x3f, 0xd6, 0x0f, 0xbf, 0xc0, 0xb2, 0x94, 0x3e, 0x6a, 0xf9, 0x4f, 0xbe,
  0x35, 0x8d, 0x94, 0x3d, 0xc7, 0xbb, 0x44, 0xbe, 0xb7, 0xbd, 0xc7, 0xbe,
  0x54, 0x50, 0x2a, 0x3e, 0xfd, 0x87, 0x86, 0x3d, 0x06, 0x4e, 0xbf, 0xbe,
  0x4c, 0x53, 0x97, 0x3e, 0x74, 0x20, 0x71, 0xbe, 0xf1, 0xe7, 0x15, 0x3e,
  0x59, 0x76, 0x2c, 0x3e, 0x51, 0x7b, 0x95, 0x3e, 0xa7, 0x75, 0xb3, 0x3e,
  0x39, 0xb9, 0x93, 0x3e, 0x18, 0x23, 0x4c, 0xbe, 0xdc, 0x27, 0x3d, 0x3e,
  0xc6, 0xaa, 0x8f, 0xbd, 0x27, 0xe8, 0x3f, 0x3e, 0xcf, 0xd6, 0xbf, 0xbe,
  0xa2, 0xcd, 0x4b, 0xbd, 0x79, 0x34, 0x4d, 0x3e, 0x83, 0x31, 0x56, 0xbe,
  0x13, 0x03, 0x59, 0xbe, 0x12, 0x23, 0x4b, 0x3d, 0xad, 0x02, 0x95, 0xbe,
  0x83, 0x19, 0xc4, 0x3d, 0xa8, 0xe3, 0xcb, 0xbb, 0xfb, 0x56, 0x48, 0x3e,
  0x1a, 0x9d, 0x55, 0x3e, 0x30, 0xa6, 0xc9, 0x3e, 0x03, 0x8e, 0xe7, 0xbe,
  0x7c, 0xa5, 0xbe, 0x3b, 0xbf, 0xa9, 0x1b, 0xbe, 0x9e, 0x6e, 0xb2, 0xbc,
  0x8a, 0xd3, 0x39, 0xbe, 0xf4, 0xdb, 0x36, 0xbe, 0xa4, 0xf8, 0xc4, 0x3d,
  0x75, 0x95, 0x83, 0xbe, 0x1c, 0xa1, 0x3f, 0xbe, 0x90, 0x5f, 0x3e, 0x3e,
  0xbb, 0x67, 0x45, 0xbe, 0x3b, 0x4e, 0xae, 0x3c, 0x6d, 0x4b, 0x79, 0x3e,
  0x9a, 0x3c, 0xa4, 0x3d, 0xae, 0x56, 0x82, 0x3e, 0x13, 0xe5, 0x8e, 0x3e,
  0x69, 0xcc, 0xe2, 0xbe, 0xed, 0xcd, 0x3b, 0x3e, 0x04, 0x12, 0x8c, 0xbe,
  0x00, 0x9e, 0xa1, 0x3e, 0xf4, 0x02, 0x5d, 0xbe, 0x58, 0xe2, 0x6d, 0xbe,
  0xda, 0x2a, 0xc1, 0x3d, 0xf3, 0xcb, 0x7d, 0x3d, 0x47, 0xf9, 0x71, 0xbe,
  0x0d, 0x2e, 0x69, 0x3e, 0x3a, 0x27, 0x99, 0xbe, 0x9f, 0x22, 0x14, 0x3d,
  0xb1, 0xc1, 0xde, 0x3d, 0xcc, 0xdf, 0xfe, 0x3d, 0xac, 0xa6, 0xe9, 0x3d,
  0x0b, 0xa6, 0xd4, 0x3e, 0x12, 0x91, 0x12, 0xbf, 0xe4, 0x49, 0xab, 0x3c,
  0x90, 0xf7, 0xcc, 0xbe, 0x5b, 0xa4, 0x8a, 0x3e, 0x18, 0xb1, 0xc5, 0xbe,
  0xe4, 0x14, 0x6f, 0xbb, 0x5f, 0x41, 0x4d, 0xbe, 0x32, 0x85, 0x22, 0x3e,
  0x97, 0x64, 0xbf, 0xbe, 0xb3, 0xb3, 0x0b, 0x3f, 0x24, 0xac, 0x66, 0x3e,
  0xa9, 0xd4, 0x81, 0x3e, 0x12, 0xde, 0x7d, 0x3e, 0xed, 0xe9, 0x90, 0x3d,
  0x29, 0x19, 0x2b, 0x3e, 0xd0, 0x0f, 0x3e, 0x3f, 0x19, 0xbf, 0x89, 0xbe,
  0xcb, 0x3f, 0x8c, 0x3e, 0xa2, 0xd8, 0x8c, 0xbe, 0x56, 0xf3, 0xff, 0xff,
  0x04, 0x00, 0x00, 0x00, 0x08, 0x00, 0x00, 0x00, 0xff, 0xff, 0xff, 0xff,
  0xd0, 0x00, 0x00, 0x00, 0x6a, 0xf3, 0xff, 0xff, 0x04, 0x00, 0x00, 0x00,
  0x08, 0x00, 0x00, 0x00, 0xbb, 0x28, 0xc5, 0x3e, 0xe5, 0x28, 0xc5, 0xbe,
  0x7e, 0xf3, 0xff, 0xff, 0x04, 0x00, 0x00, 0x00, 0x00, 0x06, 0x00, 0x00,
  0x9c, 0x25, 0x23, 0x3e, 0xe3, 0xe0, 0xb3, 0xbe, 0x6f, 0x4c, 0x22, 0xbd,
  0xd7, 0xe0, 0xae, 0xbf, 0xf6, 0x04, 0x5f, 0xbf, 0x38, 0xd1, 0x2d, 0xbf,
  0x74, 0xdc, 0xac, 0x3d, 0xac, 0x93, 0xfe, 0xbe, 0x3c, 0x70, 0x3b, 0x3c,
  0x8d, 0x40, 0xd0, 0xbd, 0xaf, 0x6b, 0x1f, 0xbe, 0x67, 0x53, 0xd0, 0xbe,
  0xea, 0x81, 0x21, 0xbf, 0x52, 0x01, 0xae, 0xbf, 0x09, 0x5f, 0x83, 0x3e,
  0xc6, 0x61, 0xce, 0xbc, 0x9d, 0x40, 0xb7, 0x3e, 0x0d, 0xbb, 0xcc, 0xbe,
  0x95, 0x1e, 0x30, 0xbf, 0x02, 0x6c, 0x29, 0x3f, 0x5b, 0xc7, 0x40, 0xbf,
  0x7a, 0x42, 0x1e, 0x3e, 0xbb, 0x5c, 0x5c, 0xbd, 0xc5, 0x53, 0x65, 0xbe,
  0x3c, 0xd7, 0x55, 0xbe, 0x95, 0xec, 0xc6, 0x3d, 0x63, 0xfc, 0x49, 0x3f,
  0xd2, 0x65, 0x9c, 0xbe, 0xcf, 0xf0, 0xb1, 0xbe, 0x90, 0x17, 0x4c, 0xbe,
  0x64, 0x60, 0x2d, 0x3e, 0x3b, 0x45, 0x2e, 0xbe, 0xeb, 0x16, 0x27, 0xbe,
  0x91, 0x4f, 0x42, 0xbe, 0x55, 0xa0, 0x68, 0xbe, 0x85, 0x71, 0x83, 0xbf,
  0x14, 0x68, 0x54, 0xbe, 0xf7, 0xdd, 0x42, 0xbe, 0x7e, 0x58, 0xbc, 0x3d,
  0x1b, 0xe6, 0x63, 0x3e, 0x4f, 0x9c, 0x45, 0xbf, 0x2c, 0xdf, 0xc3, 0xbd,
  0xfd, 0x7e, 0xe8, 0x3e, 0x0b, 0xd6, 0x14, 0xbf, 0x38, 0x8f, 0x18, 0x3f,
  0x81, 0xc5, 0xdc, 0xbd, 0x13, 0x3f, 0x7a, 0xbc, 0xbb, 0x27, 0x18, 0xbd,
  0x41, 0x63, 0x14, 0xbf, 0x30, 0x63, 0xec, 0x3e, 0xb6, 0x2e, 0x90, 0xbe,
  0xa0, 0x8b, 0xaa, 0xbe, 0xa9, 0x6c, 0xee, 0xbe, 0x5a, 0x0c, 0x53, 0xbe,
  0xf6, 0xc8, 0xda, 0xbe, 0xf8, 0x43, 0x38, 0x3e, 0x69, 0x1f, 0x0d, 0xbf,
  0x24, 0x60, 0xf6, 0x3e, 0x41, 0x87, 0x1f, 0x3f, 0xf9, 0xc3, 0xb2, 0xbe,
  0x4a, 0x07, 0x49, 0x3d, 0x50, 0xeb, 0xd5, 0xbd, 0x2f, 0xec, 0x5d, 0xbf,
  0xe5, 0x25, 0x43, 0xbd, 0x7e, 0x46, 0x88, 0xbf, 0x39, 0xbf, 0xc4, 0x3e,
  0x76, 0x99, 0x43, 0x3d, 0x76, 0x5f, 0x8f, 0xbe, 0xc0, 0xd3, 0x16, 0xbe,
  0x1f, 0x61, 0x59, 0xbe, 0x84, 0x11, 0xf8, 0xbe, 0xaa, 0x02, 0x64, 0xbe,
  0x11, 0x54, 0x93, 0xbe, 0x6c, 0xa3, 0x95, 0xbe, 0x9f, 0xaa, 0x95, 0xbe,
  0x51, 0xa9, 0x66, 0xbf, 0x77, 0xc5, 0xbf, 0x3e, 0xe2, 0x67, 0x9d, 0xbe,
  0xcc, 0xce, 0x53, 0xbf, 0xc7, 0x96, 0x19, 0x3f, 0x36, 0xdd, 0xc1, 0xbe,
  0xbd, 0xa8, 0xa5, 0xbe, 0x26, 0xfd, 0x94, 0xbe, 0x53, 0xd1, 0x0b, 0xbf,
  0x64, 0xc8, 0xad, 0xbd, 0xc8, 0xfb, 0x8b, 0xbe, 0x86, 0xc2, 0x19, 0xbf,
  0x72, 0xac, 0x31, 0x3e, 0xd9, 0xa8, 0xbe, 0xbf, 0xb3, 0x70, 0xc8, 0xbe,
  0xaf, 0xbc, 0xb0, 0xbe, 0xd7, 0x57, 0x3f, 0xbf, 0x0d, 0xae, 0xd4, 0x3d,
  0x68, 0x94, 0xce, 0xbd, 0x83, 0xa1, 0xd4, 0xbe, 0xf1, 0xbd, 0x72, 0xbe,
  0xb6, 0x8c, 0x7a, 0xbd, 0x39, 0xd4, 0x6b, 0x3d, 0x6f, 0x3f, 0xeb, 0x3d,
  0x72, 0x17, 0xea, 0xbe, 0xca, 0x7f, 0xf0, 0xbf, 0x11, 0x12, 0x16, 0xbe,
  0xda, 0xa0, 0xea, 0xbe, 0xa4, 0xec, 0x60, 0xbe, 0x30, 0xbc, 0xe7, 0x3d,
  0x4b, 0x95, 0x8c, 0xbc, 0x68, 0x8a, 0x0e, 0x3d, 0x03, 0xdd, 0xc6, 0xbe,
  0xa0, 0xf2, 0xef, 0xbe, 0xf7, 0x05, 0x9c, 0xbe, 0x0c, 0x82, 0xa2, 0xbe,
  0xb5, 0x63, 0x66, 0x3d, 0xe7, 0xae, 0x1d, 0x3e, 0xd9, 0xb4, 0x08, 0x3f,
  0xb2, 0x24, 0xdd, 0x3d, 0x68, 0xe0, 0xea, 0xbe, 0x38, 0x2e, 0xdb, 0x3e,
  0xf3, 0x60, 0x82, 0x3d, 0x2e, 0xaf, 0xba, 0xbe, 0x3b, 0x73, 0x33, 0x3f,
  0xa1, 0x2a, 0x2a, 0xbf, 0xb5, 0x92, 0x2a, 0x3f, 0xb9, 0x68, 0x15, 0x3f,
  0x18, 0x85, 0x79, 0x3c, 0x81, 0x61, 0x11, 0xbe, 0xd2, 0x03, 0x6b, 0xbe,
  0x6c, 0xda, 0x51, 0xbf, 0xdf, 0x31, 0xe2, 0x3d, 0x69, 0x76, 0x1f, 0xbf,
  0x86, 0x4e, 0x30, 0xbe, 0x10, 0x84, 0x9e, 0x3e, 0xd9, 0xca, 0x91, 0xbb,
  0xa0, 0x2e, 0x07, 0xbf, 0xd6, 0x95, 0x42, 0xbe, 0x70, 0xc2, 0xe5, 0xbe,
  0xcc, 0x54, 0x08, 0xbe, 0x7e, 0xab, 0xf7, 0xbe, 0xe8, 0xcd, 0xfd, 0x3e,
  0xf9, 0xb9, 0x2f, 0x3e, 0x92, 0x91, 0xac, 0xbe, 0xd1, 0x68, 0x0f, 0xbf,
  0x2a, 0x02, 0x23, 0xbe, 0xaf, 0x65, 0x77, 0xbe, 0x14, 0xe0, 0x68, 0xbd,
  0xb0, 0x94, 0xd2, 0x3e, 0x6e, 0x5d, 0xd8, 0x3d, 0xe5, 0xcf, 0x84, 0xbe,
  0x0a, 0xf1, 0x50, 0x3e, 0xac, 0x03, 0x59, 0xbf, 0x51, 0xea, 0xe7, 0xbd,
  0xad, 0x16, 0x89, 0xbe, 0x05, 0xc3, 0x09, 0xbf, 0x45, 0xe1, 0x81, 0xbd,
  0xa3, 0x0a, 0x80, 0x3c, 0xb9, 0xe5, 0xa3, 0xbe, 0x7a, 0x29, 0x35, 0x3d,
  0xf3, 0x2b, 0x01, 0xbf, 0xc9, 0x07, 0x31, 0x3d, 0xac, 0x57, 0xba, 0xbe,
  0xee, 0x2b, 0x50, 0xbf, 0x92, 0x6c, 0xfe, 0xbe, 0x08, 0xf9, 0xaf, 0xbe,
  0xe5, 0x11, 0x49, 0xbe, 0xcd, 0x7c, 0x30, 0x3d, 0x80, 0xbe, 0x86, 0xbe,
  0xdd, 0x87, 0xd5, 0x3e, 0x0d, 0x6d, 0x97, 0xbe, 0xcc, 0x7b, 0xf0, 0xbe,
  0x9a, 0x9e, 0x47, 0xbe, 0x40, 0xe5, 0xfd, 0xbd, 0x52, 0x85, 0xa3, 0x3e,
  0x28, 0x98, 0x30, 0xbf, 0x88, 0x6e, 0x86, 0x3e, 0xcc, 0xc5, 0xa9, 0x3c,
  0xc8, 0x9a, 0x59, 0x3e, 0x95, 0x4f, 0xe4, 0x3e, 0xd2, 0xe5, 0xc1, 0xbe,
  0x49, 0x36, 0xb9, 0x3e, 0x19, 0x8e, 0xcb, 0xbd, 0xaf, 0x87, 0xed, 0xbe,
  0x12, 0xf9, 0xa0, 0x3c, 0xbe, 0xb6, 0x8e, 0x3d, 0x27, 0x7d, 0x3b, 0x3e,
  0xab, 0xea, 0x09, 0x3e, 0x7d, 0x6d, 0x32, 0xbf, 0x78, 0x04, 0xc4, 0xbd,
  0x77, 0xe7, 0xb5, 0xbc, 0x5e, 0xe3, 0x45, 0xbd, 0x58, 0x80, 0xf7, 0x3e,
  0x61, 0xac, 0xf7, 0x3c, 0x29, 0xed, 0x4a, 0x3e, 0xf2, 0xa1, 0x55, 0xbe,
  0x9f, 0x5a, 0x06, 0x3e, 0x92, 0x69, 0xeb, 0xbc, 0xaf, 0xc2, 0x93, 0xbe,
  0xc4, 0xf8, 0xf2, 0x3e, 0x9c, 0xd7, 0xb8, 0xbd, 0x02, 0xda, 0xd0, 0xbf,
  0xab, 0xc6, 0xb7, 0xbe, 0x03, 0xe0, 0x89, 0x3e, 0xc7, 0x31, 0xb5, 0x3e,
  0x8e, 0x76, 0x8e, 0xbe, 0xea, 0x18, 0xcc, 0xbe, 0x83, 0xd5, 0xdf, 0x3c,
  0xb3, 0x7a, 0x38, 0x3e, 0xfc, 0x94, 0xb3, 0xbe, 0x86, 0xd3, 0x3f, 0xbf,
  0x28, 0x98, 0xba, 0xbe, 0x0a, 0xbc, 0x27, 0x3e, 0x81, 0x6b, 0x95, 0xbe,
  0x24, 0x20, 0x58, 0x3e, 0x59, 0x24, 0x97, 0x3e, 0x41, 0x49, 0x42, 0x3e,
  0x80, 0x7f, 0xc5, 0xbe, 0xfe, 0x1d, 0x58, 0xbe, 0x15, 0xfe, 0x92, 0xbe,
  0x72, 0x11, 0xda, 0xbd, 0xdb, 0x04, 0x82, 0xbf, 0x82, 0xa9, 0x81, 0xbf,
  0xcd, 0x25, 0xa3, 0x3e, 0x00, 0x6b, 0xb2, 0xbe, 0xb0, 0x7e, 0x13, 0xbd,
  0x15, 0x3b, 0x0d, 0xbf, 0x06, 0x7c, 0x1c, 0xbd, 0xab, 0x64, 0xd0, 0xbe,
  0x2d, 0x7a, 0x0c, 0xbf, 0x4e, 0xf4, 0xad, 0xbe, 0x63, 0x3a, 0x8c, 0xbe,
  0x05, 0x2f, 0x5b, 0xbe, 0x67, 0xfd, 0xfd, 0x3e, 0xe4, 0xa3, 0x24, 0xbf,
  0xd4, 0x5b, 0xd2, 0xbd, 0x88, 0xf0, 0x06, 0x3d, 0x5a, 0x55, 0xd8, 0xbd,
  0xfc, 0x1d, 0x0c, 0xbf, 0x64, 0xdc, 0x4c, 0xbe, 0xc8, 0x8c, 0x9a, 0xbe,
  0x51, 0xa4, 0x8e, 0x3d, 0xb1, 0x28, 0x60, 0xbf, 0x34, 0xcf, 0x7c, 0x3d,
  0x48, 0x50, 0xd0, 0xbb, 0xfc, 0x62, 0x3c, 0xbd, 0x66, 0xd3, 0xc8, 0x3c,
  0x1c, 0x2a, 0xd5, 0x3e, 0x06, 0x64, 0x32, 0xbf, 0x06, 0x02, 0x4c, 0xbf,
  0xe1, 0x9f, 0xb3, 0xbe, 0x6e, 0x2b, 0xce, 0xbf, 0x37, 0x04, 0x6c, 0x3d,
  0x65, 0x6f, 0x95, 0xbe, 0x32, 0xbb, 0xba, 0xbe, 0x9d, 0x3b, 0xbf, 0xbd,
  0x2e, 0xd6, 0xeb, 0xbe, 0x56, 0x3e, 0xdc, 0xbe, 0x41, 0x96, 0x92, 0xbe,
  0x4d, 0x7e, 0x3a, 0xbf, 0x82, 0x70, 0x5a, 0xbf, 0x82, 0xbd, 0x80, 0xbf,
  0x04, 0x19, 0x7b, 0x3e, 0x0d, 0xb4, 0x9f, 0xbd, 0xc8, 0xd0, 0x4d, 0x3d,
  0xe1, 0x3c, 0xc0, 0x3e, 0xcd, 0x27, 0x35, 0x3d, 0xdf, 0x14, 0x2a, 0xbe,
  0xa0, 0x43, 0xff, 0xbf, 0xc9, 0xc5, 0x40, 0xbf, 0x0b, 0x01, 0x33, 0xbf,
  0x6c, 0x90, 0x45, 0x3e, 0x6e, 0x67, 0x86, 0x3e, 0xac, 0x1f, 0xf7, 0x3e,
  0x5a, 0x0a, 0xb7, 0xbe, 0x28, 0x54, 0xae, 0xbd, 0xe8, 0x8b, 0x56, 0xbf,
  0xa5, 0xe5, 0x23, 0xbf, 0x2a, 0x71, 0x02, 0xbf, 0xf7, 0xce, 0x5f, 0xbe,
  0xd8, 0x94, 0x70, 0xbd, 0xbc, 0x9f, 0x4b, 0xbe, 0xd0, 0x52, 0x77, 0xbf,
  0x6d, 0x40, 0xb2, 0x3e, 0x4b, 0x9e, 0xb9, 0x3e, 0x9e, 0x74, 0x8b, 0xbe,
  0xea, 0x31, 0x2a, 0xbf, 0xca, 0xec, 0xe6, 0xbf, 0xb2, 0x42, 0xf1, 0xbd,
  0x77, 0x73, 0xea, 0xbe, 0xa3, 0xf6, 0x7d, 0xbf, 0xb0, 0x0c, 0x45, 0x3e,
  0x45, 0x4c, 0xe5, 0xbd, 0x46, 0x9b, 0x16, 0xbe, 0x4e, 0x9b, 0x1c, 0xbe,
  0xb5, 0xfa, 0x10, 0xbf, 0x67, 0x9f, 0x14, 0xbe, 0xee, 0x81, 0x6b, 0xbf,
  0xab, 0x10, 0xc9, 0xbd, 0x04, 0xd5, 0x54, 0xbe, 0x56, 0x37, 0xe9, 0x3e,
  0x32, 0xe0, 0x61, 0xbd, 0x27, 0x5f, 0x15, 0x3d, 0x86, 0x27, 0x28, 0xbf,
  0x62, 0x60, 0xfb, 0xbd, 0x04, 0xc7, 0x04, 0xbf, 0x51, 0x99, 0xff, 0x3c,
  0x06, 0x7f, 0x6c, 0xbe, 0x82, 0x90, 0x8f, 0xbe, 0xb0, 0x38, 0xf9, 0xbe,
  0x72, 0xf3, 0x1b, 0xbf, 0x41, 0x02, 0x21, 0x3f, 0x36, 0x27, 0x74, 0xbf,
  0xd2, 0x21, 0x5c, 0xbf, 0x0e, 0x24, 0x5c, 0xbe, 0xf5, 0xbf, 0xf5, 0xbd,
  0xa4, 0x3e, 0xaa, 0xbe, 0x15, 0x5d, 0x8e, 0xbd, 0x70, 0x9b, 0x0f, 0xbf,
  0x5e, 0x97, 0x1b, 0x3e, 0x0f, 0x1b, 0x8b, 0xbf, 0xb6, 0x08, 0x5b, 0xbf,
  0x3b, 0xf5, 0xa6, 0xbf, 0xac, 0x86, 0x05, 0xbf, 0x6b, 0x30, 0x6c, 0xbe,
  0x96, 0x98, 0xc0, 0xbc, 0xed, 0xf3, 0xf5, 0xbe, 0x8a, 0xd9, 0x6d, 0xbd,
  0x85, 0x02, 0x37, 0xbf, 0x4e, 0x6c, 0xb4, 0xbf, 0x2b, 0xd0, 0x0d, 0xbf,
  0x56, 0x1c, 0x5b, 0xbf, 0xec, 0x26, 0x01, 0xbe, 0xbc, 0x3f, 0x2c, 0xbe,
  0xbe, 0x60, 0x88, 0xbd, 0x7a, 0xb4, 0x94, 0x3c, 0xed, 0x72, 0x2a, 0xbf,
  0x66, 0x80, 0xd8, 0xbf, 0xb2, 0x36, 0x5b, 0xbf, 0x04, 0x24, 0x44, 0x3e,
  0xaf, 0xfe, 0xbe, 0x3e, 0x95, 0x71, 0xae, 0xbe, 0x49, 0x83, 0x81, 0x3e,
  0x52, 0xf9, 0x30, 0xbf, 0x4f, 0xb1, 0xdc, 0xbe, 0xbf, 0x36, 0x1e, 0xbf,
  0xdd, 0xc7, 0x92, 0xbd, 0xba, 0x7a, 0xbb, 0xbe, 0x19, 0x86, 0xf3, 0x3c,
  0x17, 0xa8, 0x3c, 0xbf, 0x94, 0x16, 0x2d, 0xbe, 0x82, 0x87, 0x4d, 0x3d,
  0x3d, 0x6d, 0xd6, 0xbe, 0xf6, 0x0c, 0x06, 0x3f, 0xb5, 0x19, 0x98, 0xbd,
  0xef, 0xdd, 0x3b, 0xbe, 0xc3, 0x6c, 0xe2, 0xbc, 0x5b, 0x4e, 0x07, 0xbe,
  0x17, 0x55, 0x54, 0xbf, 0x60, 0xc6, 0xfd, 0x3e, 0xa4, 0x35, 0x5b, 0xbe,
  0x59, 0xdd, 0x89, 0xbd, 0xd5, 0xf9, 0xeb, 0xbd, 0x5a, 0xc6, 0x94, 0xbe,
  0xab, 0x73, 0x68, 0xbd, 0x39, 0x82, 0x0a, 0x3d, 0xa5, 0xb3, 0x93, 0x3d,
  0x30, 0x92, 0x7f, 0xbe, 0x56, 0xcb, 0x1c, 0xbf, 0x60, 0x90, 0x55, 0xbf,
  0x8e, 0x4f, 0x79, 0xbe, 0x2d, 0xae, 0x0f, 0x3f, 0x82, 0x73, 0xb6, 0x3b,
  0x05, 0x1e, 0x17, 0xbb, 0xe2, 0x21, 0x81, 0xbd, 0x03, 0xd2, 0x5c, 0xbf,
  0x3f, 0xec, 0x14, 0xbf, 0x1c, 0x82, 0x33, 0xbe, 0x9a, 0x8e, 0xf5, 0xbd,
  0x3e, 0x82, 0xb9, 0xbd, 0x32, 0x46, 0x23, 0xbe, 0xe6, 0xa9, 0x0d, 0xbe,
  0x5e, 0x50, 0x1a, 0xbd, 0x75, 0xf0, 0xa7, 0xbe, 0xe2, 0x96, 0x26, 0x3f,
  0x62, 0xf8, 0x01, 0xbc, 0x49, 0x1a, 0xd2, 0xbd, 0x8c, 0x9f, 0x29, 0x3f,
  0x8a, 0xf9, 0xff, 0xff, 0x04, 0x00, 0x00, 0x00, 0xe0, 0x04, 0x00, 0x00,
  0xa7, 0x7e, 0x63, 0xbf, 0x2c, 0x77, 0x4b, 0x3e, 0x98, 0x7c, 0xb2, 0x3c,
  0x2f, 0xe4, 0xe1, 0x3d, 0x6a, 0xd0, 0x93, 0x3c, 0x8b, 0x31, 0xbc, 0x3e,
  0xc6, 0xfd, 0xa2, 0xbd, 0xb5, 0x86, 0xbd, 0xbe, 0xf3, 0x7a, 0x85, 0xbe,
  0x13, 0x4d, 0x8a, 0x3d, 0xf1, 0xfe, 0x08, 0x3e, 0xa0, 0x30, 0x8c, 0x3e,
  0x87, 0xa5, 0xbd, 0xbd, 0x9c, 0x04, 0x14, 0xbe, 0xc2, 0x82, 0xfa, 0xbe,
  0x25, 0x46, 0x2b, 0xbe, 0xbb, 0x70, 0x40, 0xbe, 0x55, 0xa6, 0x41, 0xbe,
  0x99, 0xb9, 0xa0, 0x3d, 0x30, 0x34, 0x88, 0xbe, 0x67, 0xa2, 0x83, 0xbe,
  0x2f, 0x20, 0xd8, 0xbe, 0x8b, 0xe8, 0xdd, 0x3e, 0x3d, 0xd1, 0xa7, 0x3d,
  0xe9, 0xed, 0x9d, 0x3e, 0xca, 0xf3, 0x92, 0xbe, 0x8b, 0x13, 0x1c, 0x3e,
  0x29, 0x35, 0xa0, 0xbe, 0x70, 0x80, 0x85, 0x3e, 0x88, 0xad, 0xde, 0xbe,
  0x17, 0xec, 0xe6, 0x3b, 0x73, 0x49, 0x50, 0xbe, 0x66, 0x95, 0x2b, 0xbc,
  0x85, 0xbb, 0xe4, 0xbd, 0x31, 0xad, 0xe6, 0xbe, 0xb2, 0x9c, 0xf0, 0x3c,
  0x84, 0xda, 0x80, 0xbd, 0x31, 0xa6, 0xe9, 0x3e, 0x43, 0x64, 0x2f, 0x3e,
  0xdb, 0xa7, 0x87, 0xbe, 0xce, 0x1c, 0x59, 0xbf, 0xb8, 0x1a, 0xdf, 0x3e,
  0x0b, 0x5c, 0xcb, 0x3c, 0xd4, 0xd8, 0x39, 0xbf, 0x78, 0x00, 0x90, 0x3e,
  0xca, 0x39, 0x3c, 0x3e, 0x3b, 0x29, 0x3a, 0x3e, 0x50, 0x65, 0x0e, 0x3f,
  0x1e, 0xa9, 0xba, 0xbe, 0xe6, 0xb6, 0x0e, 0xbe, 0x6b, 0x5b, 0xca, 0x3e,
  0x0f, 0x32, 0x4d, 0xbe, 0x3b, 0xe3, 0x80, 0xbd, 0x29, 0x63, 0xa0, 0x3e,
  0x6f, 0x5b, 0x4e, 0x3e, 0x28, 0x3e, 0x44, 0x3e, 0x21, 0x24, 0x1a, 0xbe,
  0x3b, 0xdc, 0xb5, 0x3d, 0xc4, 0xf0, 0x20, 0x3e, 0x58, 0x26, 0xe3, 0x3e,
  0x76, 0x2c, 0xab, 0xbd, 0xd0, 0x18, 0x19, 0xbf, 0x92, 0x3b, 0xa9, 0x3d,
  0x7e, 0x00, 0xb7, 0xbe, 0x99, 0xa5, 0x13, 0xbe, 0x8c, 0x6c, 0xff, 0xbe,
  0xef, 0x94, 0x0c, 0xbf, 0x05, 0x62, 0x52, 0x3e, 0xf4, 0x2f, 0x8e, 0xbe,
  0x32, 0x5e, 0x71, 0x3e, 0x04, 0x32, 0x74, 0xbe, 0xde, 0x87, 0xe6, 0x3c,
  0xc2, 0xa5, 0x97, 0x3e, 0xf7, 0x39, 0xcd, 0x3b, 0xa0, 0xe5, 0x8f, 0xbe,
  0x5d, 0x2c, 0xfe, 0x3d, 0xf9, 0x64, 0x9f, 0xbb, 0xb5, 0x9e, 0x0b, 0xbe,
  0x54, 0x1c, 0x96, 0xbe, 0xc5, 0x22, 0xcc, 0x3d, 0x62, 0xe9, 0xf8, 0x3c,
  0x8e, 0xfd, 0x15, 0xbf, 0x51, 0xb6, 0xe3, 0x3e, 0x2b, 0x63, 0xdb, 0xbe,
  0x21, 0xa2, 0xe4, 0xbe, 0x03, 0x58, 0x31, 0x3f, 0x39, 0x7c, 0xb9, 0xbe,
  0xa2, 0xbc, 0x31, 0x3e, 0x34, 0xb8, 0x78, 0x3e, 0xc0, 0x67, 0xc1, 0xbe,
  0x5b, 0xb3, 0x23, 0x3e, 0x0e, 0xd2, 0xb9, 0xbf, 0x77, 0xb9, 0x41, 0xbe,
  0xcc, 0x6b, 0x22, 0xbe, 0x83, 0x5e, 0x4e, 0x3f, 0xad, 0x46, 0x5d, 0x3e,
  0x63, 0xcc, 0xc8, 0xbe, 0x8e, 0x3b, 0x4d, 0xbe, 0x97, 0x9b, 0xd3, 0x3e,
  0xb1, 0xd7, 0x33, 0xbe, 0x1a, 0xb0, 0x94, 0x3b, 0x2c, 0xeb, 0x78, 0xbd,
  0xaf, 0xad, 0xdd, 0xbe, 0x9e, 0xe5, 0x33, 0x3e, 0xc8, 0xf5, 0x56, 0x3f,
  0xae, 0x85, 0x97, 0xbd, 0x1d, 0x4f, 0x38, 0xbd, 0x93, 0x8c, 0x0a, 0x3d,
  0x8e, 0xfb, 0x68, 0xbe, 0x06, 0x62, 0xf1, 0x3e, 0x91, 0xb5, 0xb5, 0xbe,
  0xea, 0xee, 0x9c, 0xbe, 0xf8, 0xf8, 0xd2, 0x3e, 0x19, 0x1e, 0xfa, 0xbd,
  0xd7, 0x4c, 0x1d, 0xbe, 0x02, 0xbe, 0xe8, 0xbc, 0x61, 0x23, 0x16, 0xbe,
  0x3d, 0xc7, 0xb0, 0xbc, 0x18, 0xc2, 0x03, 0xbf, 0x86, 0x0a, 0x19, 0x3e,
  0x29, 0x25, 0xda, 0xbe, 0x11, 0xea, 0xae, 0x3e, 0xbc, 0x35, 0xb7, 0x3d,
  0x3a, 0x76, 0x33, 0x3a, 0xc0, 0xc2, 0x8a, 0x3d, 0xa2, 0x08, 0x2d, 0xbe,
  0xa1, 0xad, 0x09, 0x3f, 0x2f, 0xfc, 0x6a, 0xbe, 0x3f, 0x76, 0xc3, 0x3e,
  0x0c, 0x09, 0x01, 0x3e, 0x80, 0x6f, 0xd5, 0x3e, 0xcb, 0x48, 0xce, 0xbd,
  0xa6, 0xb1, 0x1f, 0x3d, 0x48, 0xa8, 0x0d, 0xbd, 0x00, 0x3f, 0x10, 0xbc,
  0x71, 0xb9, 0x1e, 0xbf, 0x8a, 0x80, 0x16, 0x3c, 0xa6, 0x18, 0x6e, 0x3e,
  0x7d, 0xdf, 0x5a, 0x3e, 0x29, 0x74, 0x63, 0xbe, 0xbc, 0x05, 0x41, 0x3e,
  0xc2, 0xdf, 0x57, 0x3d, 0xf2, 0x27, 0xe7, 0xbc, 0x3a, 0xa7, 0x33, 0x3f,
  0x54, 0x53, 0x83, 0xbe, 0xef, 0x4f, 0x08, 0x3e, 0x2a, 0x0c, 0x06, 0xbe,
  0x6f, 0xdc, 0x46, 0xbd, 0x73, 0x56, 0x48, 0xbf, 0xf3, 0xcf, 0x18, 0x3f,
  0x05, 0x68, 0x2c, 0xbe, 0x0e, 0xec, 0xaf, 0xbd, 0x65, 0xf4, 0xf1, 0x3e,
  0xab, 0xa3, 0x50, 0x3c, 0x77, 0xb3, 0xae, 0xbd, 0x92, 0x4f, 0xae, 0x3e,
  0x2c, 0x6b, 0x2c, 0xbe, 0xf4, 0x28, 0xb5, 0x3f, 0xa2, 0x68, 0x53, 0xbe,
  0x21, 0xaf, 0x82, 0x3f, 0x3d, 0x76, 0x96, 0x3d, 0x55, 0x4a, 0xe5, 0x3d,
  0x9d, 0x4f, 0x2a, 0xbf, 0xd8, 0xf8, 0x4c, 0x3e, 0xd4, 0x2d, 0xb4, 0xbe,
  0xf6, 0x38, 0x75, 0xbe, 0xc5, 0x3d, 0xd5, 0x3d, 0xb6, 0x6e, 0x9a, 0xbe,
  0x0c, 0x9f, 0x20, 0xbe, 0x84, 0xdf, 0x04, 0x3f, 0x0e, 0x82, 0x1b, 0xbe,
  0xed, 0xfd, 0x6d, 0xbe, 0x65, 0xbe, 0x22, 0x3d, 0x23, 0x55, 0x0b, 0xbe,
  0xad, 0x4a, 0x97, 0x3e, 0xeb, 0xc3, 0x19, 0xbe, 0x51, 0x24, 0xdb, 0xbe,
  0x1d, 0xa9, 0xe8, 0x3d, 0x6c, 0x10, 0x56, 0xbd, 0x59, 0x8f, 0xc5, 0x3e,
  0xf6, 0xee, 0x96, 0xbc, 0x90, 0x4c, 0xa6, 0x3c, 0xd6, 0xbd, 0x1a, 0x3f,
  0x85, 0x47, 0x94, 0x3e, 0x29, 0x65, 0x02, 0xbd, 0x97, 0x4f, 0x47, 0xbe,
  0x78, 0xa9, 0x81, 0x3e, 0x7a, 0x98, 0xcd, 0xbe, 0x45, 0xae, 0xdb, 0xbe,
  0x48, 0x12, 0x4b, 0xbe, 0xe7, 0x7f, 0x04, 0xbe, 0xe4, 0x70, 0xa8, 0x3d,
  0x24, 0xbf, 0x19, 0x3e, 0x63, 0x3c, 0x22, 0xbd, 0x6c, 0xf9, 0x24, 0xbc,
  0x7d, 0xb8, 0xf4, 0x3e, 0x7c, 0xf2, 0x3b, 0x3e, 0xb0, 0x37, 0x95, 0xbe,
  0x51, 0xe8, 0x8a, 0x3e, 0x6c, 0x9b, 0xb4, 0xbd, 0xfa, 0xa3, 0x96, 0xbe,
  0x28, 0x83, 0xfe, 0xbd, 0xaa, 0xe2, 0xce, 0x3e, 0xea, 0xfe, 0x17, 0x3e,
  0x77, 0x51, 0x43, 0xbe, 0x32, 0xf6, 0xf9, 0xbe, 0xb1, 0x2f, 0xd0, 0xbe,
  0x4b, 0x4c, 0xde, 0x3e, 0xb0, 0xe5, 0xb0, 0x3e, 0x66, 0xee, 0xae, 0x3e,
  0x3e, 0x10, 0x8e, 0xbe, 0xcb, 0xf1, 0x2e, 0x3e, 0x37, 0xd0, 0x73, 0xbd,
  0x56, 0x0a, 0xe2, 0xbe, 0x00, 0xcc, 0x25, 0x3f, 0x18, 0x28, 0x9e, 0x3e,
  0x24, 0xdc, 0xe6, 0xbd, 0x1d, 0xc3, 0x09, 0x3c, 0xfe, 0xdb, 0x85, 0x3d,
  0xaf, 0x14, 0x71, 0xbe, 0xff, 0x48, 0x8b, 0xbe, 0x1c, 0xac, 0xf3, 0x3e,
  0x1f, 0x68, 0x66, 0x3e, 0x34, 0xb3, 0x81, 0xbe, 0xf9, 0xff, 0x32, 0x3e,
  0x48, 0x8b, 0x98, 0x3e, 0x43, 0x6b, 0x02, 0xbf, 0x1a, 0x82, 0x59, 0x3e,
  0xef, 0x9d, 0xdf, 0x3e, 0x74, 0x5e, 0x8d, 0x3d, 0xfc, 0x99, 0xa5, 0xbd,
  0x56, 0x58, 0x00, 0xbf, 0x1a, 0xcc, 0xbd, 0xbe, 0x42, 0xab, 0xd4, 0x3e,
  0x87, 0xcc, 0xb3, 0xbd, 0x7e, 0x90, 0x71, 0x3f, 0xf0, 0xf7, 0x75, 0xbf,
  0x18, 0x98, 0xc4, 0xbd, 0xbe, 0x15, 0x46, 0xbf, 0xb0, 0xf5, 0x7b, 0xbe,
  0xb9, 0xff, 0x60, 0x3e, 0x2b, 0x39, 0x00, 0xbf, 0x71, 0x1d, 0x41, 0x3e,
  0xb3, 0xa9, 0x22, 0xbe, 0xdc, 0xfc, 0xd9, 0x3c, 0xa3, 0xd1, 0x9a, 0x3e,
  0xd3, 0x2f, 0x9b, 0x3e, 0x80, 0x99, 0xfe, 0x3e, 0xa2, 0xac, 0x21, 0x3c,
  0x70, 0x81, 0x3b, 0xbe, 0x72, 0x35, 0x3d, 0xbd, 0x04, 0xff, 0x26, 0x3e,
  0x80, 0x01, 0x8f, 0x3e, 0x82, 0x45, 0xd2, 0xbe, 0x82, 0x7f, 0x1d, 0x3e,
  0x39, 0x90, 0x98, 0xbb, 0xf6, 0xd2, 0x82, 0x3e, 0xbd, 0x9b, 0xa3, 0x3e,
  0x58, 0xe8, 0x1c, 0x3e, 0xa6, 0x56, 0x92, 0xbe, 0xe2, 0x95, 0xed, 0x3e,
  0xa6, 0x75, 0x07, 0xbe, 0x2d, 0xdf, 0xde, 0xbe, 0x53, 0xaf, 0x47, 0xbf,
  0xb4, 0x2b, 0x20, 0xbf, 0x87, 0x98, 0x02, 0xbf, 0x0a, 0x5d, 0xbe, 0x3e,
  0x04, 0x52, 0xf9, 0xbe, 0xdb, 0xcd, 0xf3, 0x3d, 0xb9, 0xd7, 0x94, 0x3d,
  0x14, 0xe4, 0x4f, 0xbc, 0xc7, 0x52, 0x98, 0x3e, 0xae, 0x6f, 0x0f, 0x3f,
  0x51, 0xfb, 0xec, 0xbd, 0xe0, 0x48, 0xff, 0x3d, 0x91, 0xf3, 0x9e, 0xbe,
  0x85, 0x13, 0x2b, 0x3f, 0x1a, 0x64, 0x5b, 0x3e, 0x32, 0x06, 0x7e, 0xbd,
  0x8a, 0x92, 0x2d, 0xbe, 0xed, 0xf1, 0x98, 0xbe, 0xf1, 0x36, 0xaf, 0x3e,
  0x74, 0x5a, 0x0e, 0xbe, 0x4f, 0x79, 0xb6, 0xbe, 0xf4, 0xb6, 0x98, 0x3d,
  0xb3, 0xca, 0x93, 0xbd, 0x78, 0x29, 0x92, 0xbf, 0x15, 0xca, 0x9c, 0xbe,
  0xde, 0x6f, 0x46, 0x3f, 0x6b, 0x55, 0x1c, 0x3e, 0x3a, 0x80, 0x7e, 0xbd,
  0xfe, 0xe1, 0xd7, 0xbe, 0xa9, 0xe4, 0xe8, 0xbd, 0x63, 0xc8, 0x91, 0x3e,
  0xa4, 0x5d, 0x4a, 0x3d, 0xbf, 0x35, 0xa2, 0x3c, 0xde, 0xb7, 0xcb, 0xbe,
  0x1d, 0xe8, 0x50, 0x3e, 0x50, 0x33, 0x2e, 0xbe, 0x09, 0xa0, 0xd8, 0x3c,
  0x9d, 0xac, 0x5a, 0x3e, 0x4a, 0x2e, 0xa2, 0x3e, 0x5e, 0xcf, 0x1f, 0x3f,
  0xb3, 0x11, 0x7c, 0xbe, 0x25, 0xc1, 0x3e, 0xbe, 0xd7, 0xbd, 0xef, 0xbd,
  0x54, 0x36, 0xbb, 0xbd, 0xfa, 0xdc, 0x02, 0x3e, 0x07, 0x09, 0x4b, 0xbe,
  0x29, 0x81, 0xd6, 0xbe, 0x78, 0x48, 0x42, 0x3c, 0xd5, 0x1c, 0xed, 0x3d,
  0x76, 0xfe, 0xff, 0xff, 0x04, 0x00, 0x00, 0x00, 0x10, 0x00, 0x00, 0x00,
  0x01, 0x00, 0x00, 0x00, 0x19, 0x00, 0x00, 0x00, 0x01, 0x00, 0x00, 0x00,
  0x10, 0x00, 0x00, 0x00, 0x92, 0xfe, 0xff, 0xff, 0x04, 0x00, 0x00, 0x00,
  0x10, 0x00, 0x00, 0x00, 0x01, 0x00, 0x00, 0x00, 0x01, 0x00, 0x00, 0x00,
  0x19, 0x00, 0x00, 0x00, 0x08, 0x00, 0x00, 0x00, 0xae, 0xfe, 0xff, 0xff,
  0x04, 0x00, 0x00, 0x00, 0x10, 0x00, 0x00, 0x00, 0x01, 0x00, 0x00, 0x00,
  0x32, 0x00, 0x00, 0x00, 0x01, 0x00, 0x00, 0x00, 0x08, 0x00, 0x00, 0x00,
  0xca, 0xfe, 0xff, 0xff, 0x04, 0x00, 0x00, 0x00, 0x10, 0x00, 0x00, 0x00,
  0x01, 0x00, 0x00, 0x00, 0x01, 0x00, 0x00, 0x00, 0x32, 0x00, 0x00, 0x00,
  0x0d, 0x00, 0x00, 0x00, 0xe6, 0xfe, 0xff, 0xff, 0x04, 0x00, 0x00, 0x00,
  0x40, 0x00, 0x00, 0x00, 0x94, 0xc3, 0xe2, 0xbe, 0x5d, 0xe1, 0x11, 0xbf,
  0x92, 0x31, 0xba, 0xbe, 0x32, 0x75, 0x15, 0xbe, 0x7a, 0xed, 0x11, 0xbf,
  0x3e, 0x43, 0x42, 0x3d, 0xd7, 0x91, 0x57, 0xbf, 0x77, 0x36, 0xe2, 0xbf,
  0xde, 0x1f, 0x97, 0xbf, 0x2f, 0xec, 0xbc, 0xbe, 0x0d, 0xfb, 0x59, 0xbf,
  0x83, 0x19, 0xdf, 0xbe, 0xf1, 0x95, 0x36, 0xbf, 0x08, 0x88, 0x30, 0x3f,
  0x0f, 0x3b, 0x53, 0xbf, 0xdb, 0x5e, 0x77, 0xbe, 0x32, 0xff, 0xff, 0xff,
  0x04, 0x00, 0x00, 0x00, 0x20, 0x00, 0x00, 0x00, 0x43, 0x53, 0xd6, 0xbf,
  0x40, 0x3b, 0xd5, 0xbf, 0xf6, 0x79, 0xb8, 0xbf, 0xec, 0xad, 0x00, 0xc0,
  0x58, 0x26, 0x02, 0xc0, 0x6d, 0xb6, 0xa1, 0xbf, 0x88, 0xf2, 0xca, 0xbf,
  0xc2, 0xb6, 0xd0, 0xbf, 0x64, 0xf4, 0xff, 0xff, 0x68, 0xf4, 0xff, 0xff,
  0x0f, 0x00, 0x00, 0x00, 0x4d, 0x4c, 0x49, 0x52, 0x20, 0x43, 0x6f, 0x6e,
  0x76, 0x65, 0x72, 0x74, 0x65, 0x64, 0x2e, 0x00, 0x01, 0x00, 0x00, 0x00,
  0x14, 0x00, 0x00, 0x00, 0x00, 0x00, 0x0e, 0x00, 0x18, 0x00, 0x14, 0x00,
  0x10, 0x00, 0x0c, 0x00, 0x08, 0x00, 0x04, 0x00, 0x0e, 0x00, 0x00, 0x00,
  0x14, 0x00, 0x00, 0x00, 0x1c, 0x00, 0x00, 0x00, 0x84, 0x02, 0x00, 0x00,
  0x88, 0x02, 0x00, 0x00, 0x8c, 0x02, 0x00, 0x00, 0x04, 0x00, 0x00, 0x00,
  0x6d, 0x61, 0x69, 0x6e, 0x00, 0x00, 0x00, 0x00, 0x0b, 0x00, 0x00, 0x00,
  0x48, 0x02, 0x00, 0x00, 0xec, 0x01, 0x00, 0x00, 0xb8, 0x01, 0x00, 0x00,
  0x68, 0x01, 0x00, 0x00, 0x44, 0x01, 0x00, 0x00, 0x00, 0x01, 0x00, 0x00,
  0xdc, 0x00, 0x00, 0x00, 0x9c, 0x00, 0x00, 0x00, 0x78, 0x00, 0x00, 0x00,
  0x40, 0x00, 0x00, 0x00, 0x04, 0x00, 0x00, 0x00, 0x4a, 0xfe, 0xff, 0xff,
  0x1c, 0x00, 0x00, 0x00, 0x00, 0x00, 0x00, 0x09, 0x1c, 0x00, 0x00, 0x00,
  0x20, 0x00, 0x00, 0x00, 0x04, 0x00, 0x00, 0x00, 0x00, 0x00, 0x06, 0x00,
  0x08, 0x00, 0x04, 0x00, 0x06, 0x00, 0x00, 0x00, 0x00, 0x00, 0x80, 0x3f,
  0x01, 0x00, 0x00, 0x00, 0x16, 0x00, 0x00, 0x00, 0x01, 0x00, 0x00, 0x00,
  0x15, 0x00, 0x00, 0x00, 0x82, 0xfe, 0xff, 0xff, 0x14, 0x00, 0x00, 0x00,
  0x00, 0x00, 0x00, 0x08, 0x10, 0x00, 0x00, 0x00, 0x14, 0x00, 0x00, 0x00,
  0x03, 0x00, 0x00, 0x00, 0x3c, 0xf5, 0xff, 0xff, 0x01, 0x00, 0x00, 0x00,
  0x15, 0x00, 0x00, 0x00, 0x03, 0x00, 0x00, 0x00, 0x14, 0x00, 0x00, 0x00,
  0x0b, 0x00, 0x00, 0x00, 0x09, 0x00, 0x00, 0x00, 0x5a, 0xfe, 0xff, 0xff,
  0x08, 0x00, 0x00, 0x00, 0x0c, 0x00, 0x00, 0x00, 0x01, 0x00, 0x00, 0x00,
  0x14, 0x00, 0x00, 0x00, 0x02, 0x00, 0x00, 0x00, 0x13, 0x00, 0x00, 0x00,
  0x0a, 0x00, 0x00, 0x00, 0xd6, 0xfe, 0xff, 0xff, 0x14, 0x00, 0x00, 0x00,
  0x00, 0x00, 0x00, 0x05, 0x20, 0x00, 0x00, 0x00, 0x24, 0x00, 0x00, 0x00,
  0x02, 0x00, 0x00, 0x00, 0x42, 0xff, 0xff, 0xff, 0x02, 0x00, 0x00, 0x00,
  0x01, 0x00, 0x00, 0x00, 0x02, 0x00, 0x00, 0x00, 0x01, 0x00, 0x00, 0x00,
  0x01, 0x00, 0x00, 0x00, 0x13, 0x00, 0x00, 0x00, 0x01, 0x00, 0x00, 0x00,
  0x12, 0x00, 0x00, 0x00, 0xb6, 0xfe, 0xff, 0xff, 0x08, 0x00, 0x00, 0x00,
  0x0c, 0x00, 0x00, 0x00, 0x01, 0x00, 0x00, 0x00, 0x12, 0x00, 0x00, 0x00,
  0x02, 0x00, 0x00, 0x00, 0x11, 0x00, 0x00, 0x00, 0x06, 0x00, 0x00, 0x00,
  0x32, 0xff, 0xff, 0xff, 0x14, 0x00, 0x00, 0x00, 0x00, 0x00, 0x00, 0x01,
  0x1c, 0x00, 0x00, 0x00, 0x20, 0x00, 0x00, 0x00, 0x01, 0x00, 0x00, 0x00,
  0x24, 0xff, 0xff, 0xff, 0x00, 0x00, 0x00, 0x01, 0x01, 0x00, 0x00, 0x00,
  0x01, 0x00, 0x00, 0x00, 0x01, 0x00, 0x00, 0x00, 0x11, 0x00, 0x00, 0x00,
  0x03, 0x00, 0x00, 0x00, 0x10, 0x00, 0x00, 0x00, 0x08, 0x00, 0x00, 0x00,
  0x02, 0x00, 0x00, 0x00, 0x16, 0xff, 0xff, 0xff, 0x08, 0x00, 0x00, 0x00,
  0x0c, 0x00, 0x00, 0x00, 0x01, 0x00, 0x00, 0x00, 0x10, 0x00, 0x00, 0x00,
  0x02, 0x00, 0x00, 0x00, 0x0f, 0x00, 0x00, 0x00, 0x05, 0x00, 0x00, 0x00,
  0x92, 0xff, 0xff, 0xff, 0x24, 0x00, 0x00, 0x00, 0x00, 0x00, 0x00, 0x05,
  0x30, 0x00, 0x00, 0x00, 0x34, 0x00, 0x00, 0x00, 0x02, 0x00, 0x00, 0x00,
  0x00, 0x00, 0x0e, 0x00, 0x14, 0x00, 0x00, 0x00, 0x10, 0x00, 0x0c, 0x00,
  0x08, 0x00, 0x04, 0x00, 0x0e, 0x00, 0x00, 0x00, 0x02, 0x00, 0x00, 0x00,
  0x01, 0x00, 0x00, 0x00, 0x02, 0x00, 0x00, 0x00, 0x01, 0x00, 0x00, 0x00,
  0x01, 0x00, 0x00, 0x00, 0x0f, 0x00, 0x00, 0x00, 0x01, 0x00, 0x00, 0x00,
  0x0e, 0x00, 0x00, 0x00, 0x82, 0xff, 0xff, 0xff, 0x08, 0x00, 0x00, 0x00,
  0x0c, 0x00, 0x00, 0x00, 0x01, 0x00, 0x00, 0x00, 0x0e, 0x00, 0x00, 0x00,
  0x02, 0x00, 0x00, 0x00, 0x0d, 0x00, 0x00, 0x00, 0x04, 0x00, 0x00, 0x00,
  0x00, 0x00, 0x0e, 0x00, 0x18, 0x00, 0x14, 0x00, 0x10, 0x00, 0x0c, 0x00,
  0x0b, 0x00, 0x04, 0x00, 0x0e, 0x00, 0x00, 0x00, 0x20, 0x00, 0x00, 0x00,
  0x00, 0x00, 0x00, 0x01, 0x28, 0x00, 0x00, 0x00, 0x2c, 0x00, 0x00, 0x00,
  0x01, 0x00, 0x00, 0x00, 0x0c, 0x00, 0x10, 0x00, 0x00, 0x00, 0x0c, 0x00,
  0x08, 0x00, 0x07, 0x00, 0x0c, 0x00, 0x00, 0x00, 0x00, 0x00, 0x00, 0x01,
  0x01, 0x00, 0x00, 0x00, 0x01, 0x00, 0x00, 0x00, 0x01, 0x00, 0x00, 0x00,
  0x0d, 0x00, 0x00, 0x00, 0x03, 0x00, 0x00, 0x00, 0x0c, 0x00, 0x00, 0x00,
  0x07, 0x00, 0x00, 0x00, 0x01, 0x00, 0x00, 0x00, 0x00, 0x00, 0x0a, 0x00,
  0x0c, 0x00, 0x00, 0x00, 0x08, 0x00, 0x04, 0x00, 0x0a, 0x00, 0x00, 0x00,
  0x08, 0x00, 0x00, 0x00, 0x0c, 0x00, 0x00, 0x00, 0x01, 0x00, 0x00, 0x00,
  0x0c, 0x00, 0x00, 0x00, 0x02, 0x00, 0x00, 0x00, 0x00, 0x00, 0x00, 0x00,
  0x03, 0x00, 0x00, 0x00, 0x01, 0x00, 0x00, 0x00, 0x16, 0x00, 0x00, 0x00,
  0x01, 0x00, 0x00, 0x00, 0x00, 0x00, 0x00, 0x00, 0x17, 0x00, 0x00, 0x00,
  0xac, 0x08, 0x00, 0x00, 0x3c, 0x08, 0x00, 0x00, 0xe4, 0x07, 0x00, 0x00,
  0x90, 0x07, 0x00, 0x00, 0x24, 0x07, 0x00, 0x00, 0xcc, 0x06, 0x00, 0x00,
  0x74, 0x06, 0x00, 0x00, 0x20, 0x06, 0x00, 0x00, 0xcc, 0x05, 0x00, 0x00,
  0x74, 0x05, 0x00, 0x00, 0x28, 0x05, 0x00, 0x00, 0xdc, 0x04, 0x00, 0x00,
  0x7c, 0x04, 0x00, 0x00, 0xb0, 0x03, 0x00, 0x00, 0x50, 0x03, 0x00, 0x00,
  0xf4, 0x02, 0x00, 0x00, 0x94, 0x02, 0x00, 0x00, 0xbc, 0x01, 0x00, 0x00,
  0x5c, 0x01, 0x00, 0x00, 0x00, 0x01, 0x00, 0x00, 0xb4, 0x00, 0x00, 0x00,
  0x50, 0x00, 0x00, 0x00, 0x04, 0x00, 0x00, 0x00, 0xc6, 0xf7, 0xff, 0xff,
  0x00, 0x00, 0x00, 0x01, 0x10, 0x00, 0x00, 0x00, 0x10, 0x00, 0x00, 0x00,
  0x17, 0x00, 0x00, 0x00, 0x28, 0x00, 0x00, 0x00, 0xb0, 0xf7, 0xff, 0xff,
  0x19, 0x00, 0x00, 0x00, 0x53, 0x74, 0x61, 0x74, 0x65, 0x66, 0x75, 0x6c,
  0x50, 0x61, 0x72, 0x74, 0x69, 0x74, 0x69, 0x6f, 0x6e, 0x65, 0x64, 0x43,
  0x61, 0x6c, 0x6c, 0x3a, 0x30, 0x00, 0x00, 0x00, 0x02, 0x00, 0x00, 0x00,
  0x01, 0x00, 0x00, 0x00, 0x02, 0x00, 0x00, 0x00, 0x0e, 0xf8, 0xff, 0xff,
  0x00, 0x00, 0x00, 0x01, 0x10, 0x00, 0x00, 0x00, 0x10, 0x00, 0x00, 0x00,
  0x16, 0x00, 0x00, 0x00, 0x40, 0x00, 0x00, 0x00, 0xf8, 0xf7, 0xff, 0xff,
  0x32, 0x00, 0x00, 0x00, 0x73, 0x65, 0x71, 0x75, 0x65, 0x6e, 0x74, 0x69,
  0x61, 0x6c, 0x2f, 0x79, 0x5f, 0x70, 0x72, 0x65, 0x64, 0x2f, 0x4d, 0x61,
  0x74, 0x4d, 0x75, 0x6c, 0x3b, 0x73, 0x65, 0x71, 0x75, 0x65, 0x6e, 0x74,
  0x69, 0x61, 0x6c, 0x2f, 0x79, 0x5f, 0x70, 0x72, 0x65, 0x64, 0x2f, 0x42,
  0x69, 0x61, 0x73, 0x41, 0x64, 0x64, 0x00, 0x00, 0x02, 0x00, 0x00, 0x00,
  0x01, 0x00, 0x00, 0x00, 0x02, 0x00, 0x00, 0x00, 0x6e, 0xf8, 0xff, 0xff,
  0x00, 0x00, 0x00, 0x01, 0x10, 0x00, 0x00, 0x00, 0x10, 0x00, 0x00, 0x00,
  0x15, 0x00, 0x00, 0x00, 0x28, 0x00, 0x00, 0x00, 0x58, 0xf8, 0xff, 0xff,
  0x1a, 0x00, 0x00, 0x00, 0x73, 0x65, 0x71, 0x75, 0x65, 0x6e, 0x74, 0x69,
  0x61, 0x6c, 0x2f, 0x66, 0x6c, 0x61, 0x74, 0x74, 0x65, 0x6e, 0x2f, 0x52,
  0x65, 0x73, 0x68, 0x61, 0x70, 0x65, 0x00, 0x00, 0x02, 0x00, 0x00, 0x00,
  0x01, 0x00, 0x00, 0x00, 0xd0, 0x00, 0x00, 0x00, 0xb6, 0xf8, 0xff, 0xff,
  0x00, 0x00, 0x00, 0x01, 0x10, 0x00, 0x00, 0x00, 0x10, 0x00, 0x00, 0x00,
  0x14, 0x00, 0x00, 0x00, 0x30, 0x00, 0x00, 0x00, 0xa0, 0xf8, 0xff, 0xff,
  0x22, 0x00, 0x00, 0x00, 0x73, 0x65, 0x71, 0x75, 0x65, 0x6e, 0x74, 0x69,
  0x61, 0x6c, 0x2f, 0x6d, 0x61, 0x78, 0x5f, 0x70, 0x6f, 0x6f, 0x6c, 0x69,
  0x6e, 0x67, 0x31, 0x64, 0x5f, 0x31, 0x2f, 0x4d, 0x61, 0x78, 0x50, 0x6f,
  0x6f, 0x6c, 0x00, 0x00, 0x04, 0x00, 0x00, 0x00, 0x01, 0x00, 0x00, 0x00,
  0x0d, 0x00, 0x00, 0x00, 0x01, 0x00, 0x00, 0x00, 0x10, 0x00, 0x00, 0x00,
  0x0e, 0xf9, 0xff, 0xff, 0x00, 0x00, 0x00, 0x01, 0x10, 0x00, 0x00, 0x00,
  0x10, 0x00, 0x00, 0x00, 0x13, 0x00, 0x00, 0x00, 0x34, 0x00, 0x00, 0x00,
  0xf8, 0xf8, 0xff, 0xff, 0x26, 0x00, 0x00, 0x00, 0x73, 0x65, 0x71, 0x75,
  0x65, 0x6e, 0x74, 0x69, 0x61, 0x6c, 0x2f, 0x6d, 0x61, 0x78, 0x5f, 0x70,
  0x6f, 0x6f, 0x6c, 0x69, 0x6e, 0x67, 0x31, 0x64, 0x5f, 0x31, 0x2f, 0x45,
  0x78, 0x70, 0x61, 0x6e, 0x64, 0x44, 0x69, 0x6d, 0x73, 0x31, 0x00, 0x00,
  0x04, 0x00, 0x00, 0x00, 0x01, 0x00, 0x00, 0x00, 0x19, 0x00, 0x00, 0x00,
  0x01, 0x00, 0x00, 0x00, 0x10, 0x00, 0x00, 0x00, 0x6a, 0xf9, 0xff, 0xff,
  0x00, 0x00, 0x00, 0x01, 0x10, 0x00, 0x00, 0x00, 0x10, 0x00, 0x00, 0x00,
  0x12, 0x00, 0x00, 0x00, 0xac, 0x00, 0x00, 0x00, 0x54, 0xf9, 0xff, 0xff,
  0x9d, 0x00, 0x00, 0x00, 0x73, 0x65, 0x71, 0x75, 0x65, 0x6e, 0x74, 0x69,
  0x61, 0x6c, 0x2f, 0x63, 0x6f, 0x6e, 0x76, 0x31, 0x64, 0x5f, 0x31, 0x2f,
  0x52, 0x65, 0x6c, 0x75, 0x3b, 0x73, 0x65, 0x71, 0x75, 0x65, 0x6e, 0x74,
  0x69, 0x61, 0x6c, 0x2f, 0x63, 0x6f, 0x6e, 0x76, 0x31, 0x64, 0x5f, 0x31,
  0x2f, 0x42, 0x69, 0x61, 0x73, 0x41, 0x64, 0x64, 0x3b, 0x73, 0x65, 0x71,
  0x75, 0x65, 0x6e, 0x74, 0x69, 0x61, 0x6c, 0x2f, 0x63, 0x6f, 0x6e, 0x76,
  0x31, 0x64, 0x5f, 0x31, 0x2f, 0x43, 0x6f, 0x6e, 0x76, 0x31, 0x44, 0x2f,
  0x53, 0x71, 0x75, 0x65, 0x65, 0x7a, 0x65, 0x3b, 0x73, 0x65, 0x71, 0x75,
  0x65, 0x6e, 0x74, 0x69, 0x61, 0x6c, 0x2f, 0x63, 0x6f, 0x6e, 0x76, 0x31,
  0x64, 0x5f, 0x31, 0x2f, 0x42, 0x69, 0x61, 0x73, 0x41, 0x64, 0x64, 0x2f,
  0x52, 0x65, 0x61, 0x64, 0x56, 0x61, 0x72, 0x69, 0x61, 0x62, 0x6c, 0x65,
  0x4f, 0x70, 0x3b, 0x73, 0x65, 0x71, 0x75, 0x65, 0x6e, 0x74, 0x69, 0x61,
  0x6c, 0x2f, 0x63, 0x6f, 0x6e, 0x76, 0x31, 0x64, 0x5f, 0x31, 0x2f, 0x43,
  0x6f, 0x6e, 0x76, 0x31, 0x44, 0x00, 0x00, 0x00, 0x04, 0x00, 0x00, 0x00,
  0x01, 0x00, 0x00, 0x00, 0x01, 0x00, 0x00, 0x00, 0x19, 0x00, 0x00, 0x00,
  0x10, 0x00, 0x00, 0x00, 0x3e, 0xfa, 0xff, 0xff, 0x00, 0x00, 0x00, 0x01,
  0x10, 0x00, 0x00, 0x00, 0x10, 0x00, 0x00, 0x00, 0x11, 0x00, 0x00, 0x00,
  0x34, 0x00, 0x00, 0x00, 0x28, 0xfa, 0xff, 0xff, 0x26, 0x00, 0x00, 0x00,
  0x73, 0x65, 0x71, 0x75, 0x65, 0x6e, 0x74, 0x69, 0x61, 0x6c, 0x2f, 0x63,
  0x6f, 0x6e, 0x76, 0x31, 0x64, 0x5f, 0x31, 0x2f, 0x43, 0x6f, 0x6e, 0x76,
  0x31, 0x44, 0x2f, 0x45, 0x78, 0x70, 0x61, 0x6e, 0x64, 0x44, 0x69, 0x6d,
  0x73, 0x31, 0x00, 0x00, 0x04, 0x00, 0x00, 0x00, 0x01, 0x00, 0x00, 0x00,
  0x01, 0x00, 0x00, 0x00, 0x19, 0x00, 0x00, 0x00, 0x08, 0x00, 0x00, 0x00,
  0x9a, 0xfa, 0xff, 0xff, 0x00, 0x00, 0x00, 0x01, 0x10, 0x00, 0x00, 0x00,
  0x10, 0x00, 0x00, 0x00, 0x10, 0x00, 0x00, 0x00, 0x30, 0x00, 0x00, 0x00,
  0x84, 0xfa, 0xff, 0xff, 0x20, 0x00, 0x00, 0x00, 0x73, 0x65, 0x71, 0x75,
  0x65, 0x6e, 0x74, 0x69, 0x61, 0x6c, 0x2f, 0x6d, 0x61, 0x78, 0x5f, 0x70,
  0x6f, 0x6f, 0x6c, 0x69, 0x6e, 0x67, 0x31, 0x64, 0x2f, 0x4d, 0x61, 0x78,
  0x50, 0x6f, 0x6f, 0x6c, 0x00, 0x00, 0x00, 0x00, 0x04, 0x00, 0x00, 0x00,
  0x01, 0x00, 0x00, 0x00, 0x19, 0x00, 0x00, 0x00, 0x01, 0x00, 0x00, 0x00,
  0x08, 0x00, 0x00, 0x00, 0xf2, 0xfa, 0xff, 0xff, 0x00, 0x00, 0x00, 0x01,
  0x10, 0x00, 0x00, 0x00, 0x10, 0x00, 0x00, 0x00, 0x0f, 0x00, 0x00, 0x00,
  0x34, 0x00, 0x00, 0x00, 0xdc, 0xfa, 0xff, 0xff, 0x24, 0x00, 0x00, 0x00,
  0x73, 0x65, 0x71, 0x75, 0x65, 0x6e, 0x74, 0x69, 0x61, 0x6c, 0x2f, 0x6d,
  0x61, 0x78, 0x5f, 0x70, 0x6f, 0x6f, 0x6c, 0x69, 0x6e, 0x67, 0x31, 0x64,
  0x2f, 0x45, 0x78, 0x70, 0x61, 0x6e, 0x64, 0x44, 0x69, 0x6d, 0x73, 0x31,
  0x00, 0x00, 0x00, 0x00, 0x04, 0x00, 0x00, 0x00, 0x01, 0x00, 0x00, 0x00,
  0x32, 0x00, 0x00, 0x00, 0x01, 0x00, 0x00, 0x00, 0x08, 0x00, 0x00, 0x00,
  0x4e, 0xfb, 0xff, 0xff, 0x00, 0x00, 0x00, 0x01, 0x10, 0x00, 0x00, 0x00,
  0x10, 0x00, 0x00, 0x00, 0x0e, 0x00, 0x00, 0x00, 0xa0, 0x00, 0x00, 0x00,
  0x38, 0xfb, 0xff, 0xff, 0x93, 0x00, 0x00, 0x00, 0x73, 0x65, 0x71, 0x75,
  0x65, 0x6e, 0x74, 0x69, 0x61, 0x6c, 0x2f, 0x63, 0x6f, 0x6e, 0x76, 0x31,
  0x64, 0x2f, 0x52, 0x65, 0x6c, 0x75, 0x3b, 0x73, 0x65, 0x71, 0x75, 0x65,
  0x6e, 0x74, 0x69, 0x61, 0x6c, 0x2f, 0x63, 0x6f, 0x6e, 0x76, 0x31, 0x64,
  0x2f, 0x42, 0x69, 0x61, 0x73, 0x41, 0x64, 0x64, 0x3b, 0x73, 0x65, 0x71,
  0x75, 0x65, 0x6e, 0x74, 0x69, 0x61, 0x6c, 0x2f, 0x63, 0x6f, 0x6e, 0x76,
  0x31, 0x64, 0x2f, 0x43, 0x6f, 0x6e, 0x76, 0x31, 0x44, 0x2f, 0x53, 0x71,
  0x75, 0x65, 0x65, 0x7a, 0x65, 0x3b, 0x73, 0x65, 0x71, 0x75, 0x65, 0x6e,
  0x74, 0x69, 0x61, 0x6c, 0x2f, 0x63, 0x6f, 0x6e, 0x76, 0x31, 0x64, 0x2f,
  0x42, 0x69, 0x61, 0x73, 0x41, 0x64, 0x64, 0x2f, 0x52, 0x65, 0x61, 0x64,
  0x56, 0x61, 0x72, 0x69, 0x61, 0x62, 0x6c, 0x65, 0x4f, 0x70, 0x3b, 0x73,
  0x65, 0x71, 0x75, 0x65, 0x6e, 0x74, 0x69, 0x61, 0x6c, 0x2f, 0x63, 0x6f,
  0x6e, 0x76, 0x31, 0x64, 0x2f, 0x43, 0x6f, 0x6e, 0x76, 0x31, 0x44, 0x00,
  0x04, 0x00, 0x00, 0x00, 0x01, 0x00, 0x00, 0x00, 0x01, 0x00, 0x00, 0x00,
  0x32, 0x00, 0x00, 0x00, 0x08, 0x00, 0x00, 0x00, 0x16, 0xfc, 0xff, 0xff,
  0x00, 0x00, 0x00, 0x01, 0x10, 0x00, 0x00, 0x00, 0x10, 0x00, 0x00, 0x00,
  0x0d, 0x00, 0x00, 0x00, 0x34, 0x00, 0x00, 0x00, 0x00, 0xfc, 0xff, 0xff,
  0x24, 0x00, 0x00, 0x00, 0x73, 0x65, 0x71, 0x75, 0x65, 0x6e, 0x74, 0x69,
  0x61, 0x6c, 0x2f, 0x63, 0x6f, 0x6e, 0x76, 0x31, 0x64, 0x2f, 0x43, 0x6f,
  0x6e, 0x76, 0x31, 0x44, 0x2f, 0x45, 0x78, 0x70, 0x61, 0x6e, 0x64, 0x44,
  0x69, 0x6d, 0x73, 0x31, 0x00, 0x00, 0x00, 0x00, 0x04, 0x00, 0x00, 0x00,
  0x01, 0x00, 0x00, 0x00, 0x01, 0x00, 0x00, 0x00, 0x32, 0x00, 0x00, 0x00,
  0x0d, 0x00, 0x00, 0x00, 0x72, 0xfc, 0xff, 0xff, 0x00, 0x00, 0x00, 0x01,
  0x10, 0x00, 0x00, 0x00, 0x10, 0x00, 0x00, 0x00, 0x0c, 0x00, 0x00, 0x00,
  0x28, 0x00, 0x00, 0x00, 0x5c, 0xfc, 0xff, 0xff, 0x18, 0x00, 0x00, 0x00,
  0x73, 0x65, 0x71, 0x75, 0x65, 0x6e, 0x74, 0x69, 0x61, 0x6c, 0x2f, 0x79,
  0x5f, 0x70, 0x72, 0x65, 0x64, 0x2f, 0x4d, 0x61, 0x74, 0x4d, 0x75, 0x6c,
  0x00, 0x00, 0x00, 0x00, 0x02, 0x00, 0x00, 0x00, 0x02, 0x00, 0x00, 0x00,
  0xd0, 0x00, 0x00, 0x00, 0xca, 0xfd, 0xff, 0xff, 0x00, 0x00, 0x00, 0x01,
  0x14, 0x00, 0x00, 0x00, 0x14, 0x00, 0x00, 0x00, 0x0b, 0x00, 0x00, 0x00,
  0x00, 0x00, 0x00, 0x02, 0x28, 0x00, 0x00, 0x00, 0xa8, 0xfc, 0xff, 0xff,
  0x18, 0x00, 0x00, 0x00, 0x73, 0x65, 0x71, 0x75, 0x65, 0x6e, 0x74, 0x69,
  0x61, 0x6c, 0x2f, 0x66, 0x6c, 0x61, 0x74, 0x74, 0x65, 0x6e, 0x2f, 0x43,
  0x6f, 0x6e, 0x73, 0x74, 0x00, 0x00, 0x00, 0x00, 0x01, 0x00, 0x00, 0x00,
  0x02, 0x00, 0x00, 0x00, 0x02, 0xfd, 0xff, 0xff, 0x00, 0x00, 0x00, 0x01,
  0x10, 0x00, 0x00, 0x00, 0x10, 0x00, 0x00, 0x00, 0x0a, 0x00, 0x00, 0x00,
  0x38, 0x00, 0x00, 0x00, 0xec, 0xfc, 0xff, 0xff, 0x28, 0x00, 0x00, 0x00,
  0x73, 0x65, 0x71, 0x75, 0x65, 0x6e, 0x74, 0x69, 0x61, 0x6c, 0x2f, 0x79,
  0x5f, 0x70, 0x72, 0x65, 0x64, 0x2f, 0x42, 0x69, 0x61, 0x73, 0x41, 0x64,
  0x64, 0x2f, 0x52, 0x65, 0x61, 0x64, 0x56, 0x61, 0x72, 0x69, 0x61, 0x62,
  0x6c, 0x65, 0x4f, 0x70, 0x00, 0x00, 0x00, 0x00, 0x01, 0x00, 0x00, 0x00,
  0x02, 0x00, 0x00, 0x00, 0x56, 0xfd, 0xff, 0xff, 0x00, 0x00, 0x00, 0x01,
  0x10, 0x00, 0x00, 0x00, 0x10, 0x00, 0x00, 0x00, 0x09, 0x00, 0x00, 0x00,
  0x28, 0x00, 0x00, 0x00, 0x40, 0xfd, 0xff, 0xff, 0x1a, 0x00, 0x00, 0x00,
  0x73, 0x65, 0x71, 0x75, 0x65, 0x6e, 0x74, 0x69, 0x61, 0x6c, 0x2f, 0x63,
  0x6f, 0x6e, 0x76, 0x31, 0x64, 0x5f, 0x31, 0x2f, 0x43, 0x6f, 0x6e, 0x76,
  0x31, 0x44, 0x00, 0x00, 0x04, 0x00, 0x00, 0x00, 0x10, 0x00, 0x00, 0x00,
  0x01, 0x00, 0x00, 0x00, 0x03, 0x00, 0x00, 0x00, 0x08, 0x00, 0x00, 0x00,
  0xa6, 0xfd, 0xff, 0xff, 0x00, 0x00, 0x00, 0x01, 0x10, 0x00, 0x00, 0x00,
  0x10, 0x00, 0x00, 0x00, 0x08, 0x00, 0x00, 0x00, 0x28, 0x00, 0x00, 0x00,
  0x90, 0xfd, 0xff, 0xff, 0x18, 0x00, 0x00, 0x00, 0x73, 0x65, 0x71, 0x75,
  0x65, 0x6e, 0x74, 0x69, 0x61, 0x6c, 0x2f, 0x63, 0x6f, 0x6e, 0x76, 0x31,
  0x64, 0x2f, 0x43, 0x6f, 0x6e, 0x76, 0x31, 0x44, 0x00, 0x00, 0x00, 0x00,
  0x04, 0x00, 0x00, 0x00, 0x08, 0x00, 0x00, 0x00, 0x01, 0x00, 0x00, 0x00,
  0x03, 0x00, 0x00, 0x00, 0x0d, 0x00, 0x00, 0x00, 0x06, 0xff, 0xff, 0xff,
  0x00, 0x00, 0x00, 0x01, 0x14, 0x00, 0x00, 0x00, 0x14, 0x00, 0x00, 0x00,
  0x07, 0x00, 0x00, 0x00, 0x00, 0x00, 0x00, 0x02, 0x34, 0x00, 0x00, 0x00,
  0xe4, 0xfd, 0xff, 0xff, 0x25, 0x00, 0x00, 0x00, 0x73, 0x65, 0x71, 0x75,
  0x65, 0x6e, 0x74, 0x69, 0x61, 0x6c, 0x2f, 0x6d, 0x61, 0x78, 0x5f, 0x70,
  0x6f, 0x6f, 0x6c, 0x69, 0x6e, 0x67, 0x31, 0x64, 0x5f, 0x31, 0x2f, 0x45,
  0x78, 0x70, 0x61, 0x6e, 0x64, 0x44, 0x69, 0x6d, 0x73, 0x00, 0x00, 0x00,
  0x01, 0x00, 0x00, 0x00, 0x04, 0x00, 0x00, 0x00, 0x5a, 0xff, 0xff, 0xff,
  0x00, 0x00, 0x00, 0x01, 0x14, 0x00, 0x00, 0x00, 0x14, 0x00, 0x00, 0x00,
  0x06, 0x00, 0x00, 0x00, 0x00, 0x00, 0x00, 0x02, 0x34, 0x00, 0x00, 0x00,
  0x38, 0xfe, 0xff, 0xff, 0x25, 0x00, 0x00, 0x00, 0x73, 0x65, 0x71, 0x75,
  0x65, 0x6e, 0x74, 0x69, 0x61, 0x6c, 0x2f, 0x63, 0x6f, 0x6e, 0x76, 0x31,
  0x64, 0x5f, 0x31, 0x2f, 0x43, 0x6f, 0x6e, 0x76, 0x31, 0x44, 0x2f, 0x45,
  0x78, 0x70, 0x61, 0x6e, 0x64, 0x44, 0x69, 0x6d, 0x73, 0x00, 0x00, 0x00,
  0x01, 0x00, 0x00, 0x00, 0x04, 0x00, 0x00, 0x00, 0xae, 0xff, 0xff, 0xff,
  0x00, 0x00, 0x00, 0x01, 0x14, 0x00, 0x00, 0x00, 0x14, 0x00, 0x00, 0x00,
  0x05, 0x00, 0x00, 0x00, 0x00, 0x00, 0x00, 0x02, 0x30, 0x00, 0x00, 0x00,
  0x8c, 0xfe, 0xff, 0xff, 0x23, 0x00, 0x00, 0x00, 0x73, 0x65, 0x71, 0x75,
  0x65, 0x6e, 0x74, 0x69, 0x61, 0x6c, 0x2f, 0x6d, 0x61, 0x78, 0x5f, 0x70,
  0x6f, 0x6f, 0x6c, 0x69, 0x6e, 0x67, 0x31, 0x64, 0x2f, 0x45, 0x78, 0x70,
  0x61, 0x6e, 0x64, 0x44, 0x69, 0x6d, 0x73, 0x00, 0x01, 0x00, 0x00, 0x00,
  0x04, 0x00, 0x00, 0x00, 0x00, 0x00, 0x16, 0x00, 0x1c, 0x00, 0x18, 0x00,
  0x17, 0x00, 0x10, 0x00, 0x0c, 0x00, 0x08, 0x00, 0x00, 0x00, 0x00, 0x00,
  0x00, 0x00, 0x07, 0x00, 0x16, 0x00, 0x00, 0x00, 0x00, 0x00, 0x00, 0x01,
  0x14, 0x00, 0x00, 0x00, 0x14, 0x00, 0x00, 0x00, 0x04, 0x00, 0x00, 0x00,
  0x00, 0x00, 0x00, 0x02, 0x30, 0x00, 0x00, 0x00, 0xf4, 0xfe, 0xff, 0xff,
  0x23, 0x00, 0x00, 0x00, 0x73, 0x65, 0x71, 0x75, 0x65, 0x6e, 0x74, 0x69,
  0x61, 0x6c, 0x2f, 0x63, 0x6f, 0x6e, 0x76, 0x31, 0x64, 0x2f, 0x43, 0x6f,
  0x6e, 0x76, 0x31, 0x44, 0x2f, 0x45, 0x78, 0x70, 0x61, 0x6e, 0x64, 0x44,
  0x69, 0x6d, 0x73, 0x00, 0x01, 0x00, 0x00, 0x00, 0x04, 0x00, 0x00, 0x00,
  0x56, 0xff, 0xff, 0xff, 0x00, 0x00, 0x00, 0x01, 0x10, 0x00, 0x00, 0x00,
  0x10, 0x00, 0x00, 0x00, 0x03, 0x00, 0x00, 0x00, 0x38, 0x00, 0x00, 0x00,
  0x40, 0xff, 0xff, 0xff, 0x2a, 0x00, 0x00, 0x00, 0x73, 0x65, 0x71, 0x75,
  0x65, 0x6e, 0x74, 0x69, 0x61, 0x6c, 0x2f, 0x63, 0x6f, 0x6e, 0x76, 0x31,
  0x64, 0x5f, 0x31, 0x2f, 0x42, 0x69, 0x61, 0x73, 0x41, 0x64, 0x64, 0x2f,
  0x52, 0x65, 0x61, 0x64, 0x56, 0x61, 0x72, 0x69, 0x61, 0x62, 0x6c, 0x65,
  0x4f, 0x70, 0x00, 0x00, 0x01, 0x00, 0x00, 0x00, 0x10, 0x00, 0x00, 0x00,
  0xaa, 0xff, 0xff, 0xff, 0x00, 0x00, 0x00, 0x01, 0x10, 0x00, 0x00, 0x00,
  0x10, 0x00, 0x00, 0x00, 0x02, 0x00, 0x00, 0x00, 0x38, 0x00, 0x00, 0x00,
  0x94, 0xff, 0xff, 0xff, 0x28, 0x00, 0x00, 0x00, 0x73, 0x65, 0x71, 0x75,
  0x65, 0x6e, 0x74, 0x69, 0x61, 0x6c, 0x2f, 0x63, 0x6f, 0x6e, 0x76, 0x31,
  0x64, 0x2f, 0x42, 0x69, 0x61, 0x73, 0x41, 0x64, 0x64, 0x2f, 0x52, 0x65,
  0x61, 0x64, 0x56, 0x61, 0x72, 0x69, 0x61, 0x62, 0x6c, 0x65, 0x4f, 0x70,
  0x00, 0x00, 0x00, 0x00, 0x01, 0x00, 0x00, 0x00, 0x08, 0x00, 0x00, 0x00,
  0x00, 0x00, 0x16, 0x00, 0x18, 0x00, 0x14, 0x00, 0x00, 0x00, 0x10, 0x00,
  0x0c, 0x00, 0x08, 0x00, 0x00, 0x00, 0x00, 0x00, 0x00, 0x00, 0x07, 0x00,
  0x16, 0x00, 0x00, 0x00, 0x00, 0x00, 0x00, 0x01, 0x14, 0x00, 0x00, 0x00,
  0x14, 0x00, 0x00, 0x00, 0x01, 0x00, 0x00, 0x00, 0x24, 0x00, 0x00, 0x00,
  0x04, 0x00, 0x04, 0x00, 0x04, 0x00, 0x00, 0x00, 0x13, 0x00, 0x00, 0x00,
  0x73, 0x65, 0x72, 0x76, 0x69, 0x6e, 0x67, 0x5f, 0x64, 0x65, 0x66, 0x61,
  0x75, 0x6c, 0x74, 0x5f, 0x78, 0x3a, 0x30, 0x00, 0x02, 0x00, 0x00, 0x00,
  0x01, 0x00, 0x00, 0x00, 0x8a, 0x02, 0x00, 0x00, 0x05, 0x00, 0x00, 0x00,
  0x50, 0x00, 0x00, 0x00, 0x34, 0x00, 0x00, 0x00, 0x24, 0x00, 0x00, 0x00,
  0x14, 0x00, 0x00, 0x00, 0x04, 0x00, 0x00, 0x00, 0xd0, 0xff, 0xff, 0xff,
  0x19, 0x00, 0x00, 0x00, 0x00, 0x00, 0x00, 0x19, 0xdc, 0xff, 0xff, 0xff,
  0x09, 0x00, 0x00, 0x00, 0x00, 0x00, 0x00, 0x09, 0xe8, 0xff, 0xff, 0xff,
  0x11, 0x00, 0x00, 0x00, 0x00, 0x00, 0x00, 0x11, 0xf4, 0xff, 0xff, 0xff,
  0x03, 0x00, 0x00, 0x00, 0x00, 0x00, 0x00, 0x03, 0x0c, 0x00, 0x0c, 0x00,
  0x0b, 0x00, 0x00, 0x00, 0x00, 0x00, 0x04, 0x00, 0x0c, 0x00, 0x00, 0x00,
  0x16, 0x00, 0x00, 0x00, 0x00, 0x00, 0x00, 0x16
};
unsigned int tflite_learn_3_len = 8420;
#endif // _EI_CLASSIFIER_TFLITE_LEARN_3_H_
