/*
 * Copyright (c) 2024 EdgeImpulse Inc.
 *
 * Generated by Edge Impulse and licensed under the applicable Edge Impulse
 * Terms of Service. Community and Professional Terms of Service
 * (https://docs.edgeimpulse.com/page/terms-of-service) or Enterprise Terms of
 * Service (https://docs.edgeimpulse.com/page/enterprise-terms-of-service),
 * according to your product plan subscription (the “License”).
 *
 * This software, documentation and other associated files (collectively referred
 * to as the “Software”) is a single SDK variation generated by the Edge Impulse
 * platform and requires an active paid Edge Impulse subscription to use this
 * Software for any purpose.
 *
 * You may NOT use this Software unless you have an active Edge Impulse subscription
 * that meets the eligibility requirements for the applicable License, subject to
 * your full and continued compliance with the terms and conditions of the License,
 * including without limitation any usage restrictions under the applicable License.
 *
 * If you do not have an active Edge Impulse product plan subscription, or if use
 * of this Software exceeds the usage limitations of your Edge Impulse product plan
 * subscription, you are not permitted to use this Software and must immediately
 * delete and erase all copies of this Software within your control or possession.
 * Edge Impulse reserves all rights and remedies available to enforce its rights.
 *
 * Unless required by applicable law or agreed to in writing, the Software is
 * distributed on an "AS IS" BASIS, WITHOUT WARRANTIES OR CONDITIONS OF ANY KIND,
 * either express or implied. See the License for the specific language governing
 * permissions, disclaimers and limitations under the License.
 */

#ifndef _EI_CLASSIFIER_TFLITE_LEARN_3_H_
#define _EI_CLASSIFIER_TFLITE_LEARN_3_H_

#define EI_CLASSIFIER_TFLITE_LEARN_3_ARENA_SIZE     10624
const size_t tflite_learn_3_arena_size = 10624;

#ifdef EI_CLASSIFIER_TFLITE_ARENA_SIZE
#if EI_CLASSIFIER_TFLITE_ARENA_SIZE < EI_CLASSIFIER_TFLITE_LEARN_3_ARENA_SIZE
#undef EI_CLASSIFIER_TFLITE_ARENA_SIZE
#define EI_CLASSIFIER_TFLITE_ARENA_SIZE EI_CLASSIFIER_TFLITE_LEARN_3_ARENA_SIZE
#endif // #if EI_CLASSIFIER_TFLITE_ARENA_SIZE < EI_CLASSIFIER_TFLITE_LEARN_3_ARENA_SIZE
#else
#define EI_CLASSIFIER_TFLITE_ARENA_SIZE EI_CLASSIFIER_TFLITE_LEARN_3_ARENA_SIZE
#endif // #ifdef EI_CLASSIFIER_TFLITE_ARENA_SIZE

#if defined __GNUC__
#define ALIGN(X) __attribute__((aligned(X)))
#elif defined _MSC_VER
#define ALIGN(X) __declspec(align(X))
#elif defined __TASKING__
#define ALIGN(X) __align(X)
#else
#define ALIGN(X)
#endif

ALIGN(16) const unsigned char tflite_learn_3[] = {
  0x1c, 0x00, 0x00, 0x00, 0x54, 0x46, 0x4c, 0x33, 0x14, 0x00, 0x20, 0x00,
  0x1c, 0x00, 0x18, 0x00, 0x14, 0x00, 0x10, 0x00, 0x0c, 0x00, 0x00, 0x00,
  0x08, 0x00, 0x04, 0x00, 0x14, 0x00, 0x00, 0x00, 0x1c, 0x00, 0x00, 0x00,
  0x8c, 0x00, 0x00, 0x00, 0xe4, 0x00, 0x00, 0x00, 0x98, 0x14, 0x00, 0x00,
  0xa8, 0x14, 0x00, 0x00, 0x50, 0x20, 0x00, 0x00, 0x03, 0x00, 0x00, 0x00,
  0x01, 0x00, 0x00, 0x00, 0x10, 0x00, 0x00, 0x00, 0x00, 0x00, 0x0a, 0x00,
  0x10, 0x00, 0x0c, 0x00, 0x08, 0x00, 0x04, 0x00, 0x0a, 0x00, 0x00, 0x00,
  0x0c, 0x00, 0x00, 0x00, 0x1c, 0x00, 0x00, 0x00, 0x3c, 0x00, 0x00, 0x00,
  0x0f, 0x00, 0x00, 0x00, 0x73, 0x65, 0x72, 0x76, 0x69, 0x6e, 0x67, 0x5f,
  0x64, 0x65, 0x66, 0x61, 0x75, 0x6c, 0x74, 0x00, 0x01, 0x00, 0x00, 0x00,
  0x04, 0x00, 0x00, 0x00, 0x9c, 0xff, 0xff, 0xff, 0x16, 0x00, 0x00, 0x00,
  0x04, 0x00, 0x00, 0x00, 0x08, 0x00, 0x00, 0x00, 0x6f, 0x75, 0x74, 0x70,
  0x75, 0x74, 0x5f, 0x30, 0x00, 0x00, 0x00, 0x00, 0x01, 0x00, 0x00, 0x00,
  0x04, 0x00, 0x00, 0x00, 0x42, 0xeb, 0xff, 0xff, 0x04, 0x00, 0x00, 0x00,
  0x01, 0x00, 0x00, 0x00, 0x78, 0x00, 0x00, 0x00, 0x02, 0x00, 0x00, 0x00,
  0x34, 0x00, 0x00, 0x00, 0x04, 0x00, 0x00, 0x00, 0xdc, 0xff, 0xff, 0xff,
  0x19, 0x00, 0x00, 0x00, 0x04, 0x00, 0x00, 0x00, 0x13, 0x00, 0x00, 0x00,
  0x43, 0x4f, 0x4e, 0x56, 0x45, 0x52, 0x53, 0x49, 0x4f, 0x4e, 0x5f, 0x4d,
  0x45, 0x54, 0x41, 0x44, 0x41, 0x54, 0x41, 0x00, 0x08, 0x00, 0x0c, 0x00,
  0x08, 0x00, 0x04, 0x00, 0x08, 0x00, 0x00, 0x00, 0x18, 0x00, 0x00, 0x00,
  0x04, 0x00, 0x00, 0x00, 0x13, 0x00, 0x00, 0x00, 0x6d, 0x69, 0x6e, 0x5f,
  0x72, 0x75, 0x6e, 0x74, 0x69, 0x6d, 0x65, 0x5f, 0x76, 0x65, 0x72, 0x73,
  0x69, 0x6f, 0x6e, 0x00, 0x1a, 0x00, 0x00, 0x00, 0xb0, 0x13, 0x00, 0x00,
  0xa8, 0x13, 0x00, 0x00, 0x78, 0x13, 0x00, 0x00, 0x28, 0x13, 0x00, 0x00,
  0x08, 0x13, 0x00, 0x00, 0xe8, 0x12, 0x00, 0x00, 0xc8, 0x12, 0x00, 0x00,
  0xa8, 0x12, 0x00, 0x00, 0xb8, 0x0d, 0x00, 0x00, 0xa8, 0x07, 0x00, 0x00,
  0x90, 0x07, 0x00, 0x00, 0x78, 0x07, 0x00, 0x00, 0xe8, 0x00, 0x00, 0x00,
  0xe0, 0x00, 0x00, 0x00, 0xd8, 0x00, 0x00, 0x00, 0xd0, 0x00, 0x00, 0x00,
  0xc8, 0x00, 0x00, 0x00, 0xc0, 0x00, 0x00, 0x00, 0xb8, 0x00, 0x00, 0x00,
  0xb0, 0x00, 0x00, 0x00, 0xa8, 0x00, 0x00, 0x00, 0xa0, 0x00, 0x00, 0x00,
  0x98, 0x00, 0x00, 0x00, 0x90, 0x00, 0x00, 0x00, 0x70, 0x00, 0x00, 0x00,
  0x04, 0x00, 0x00, 0x00, 0x1a, 0xec, 0xff, 0xff, 0x04, 0x00, 0x00, 0x00,
  0x5c, 0x00, 0x00, 0x00, 0x0c, 0x00, 0x00, 0x00, 0x08, 0x00, 0x0e, 0x00,
  0x08, 0x00, 0x04, 0x00, 0x08, 0x00, 0x00, 0x00, 0x14, 0x00, 0x00, 0x00,
  0x2c, 0x00, 0x00, 0x00, 0x00, 0x00, 0x0a, 0x00, 0x0c, 0x00, 0x08, 0x00,
  0x00, 0x00, 0x07, 0x00, 0x0a, 0x00, 0x00, 0x00, 0x00, 0x00, 0x00, 0x01,
  0x04, 0x00, 0x00, 0x00, 0x00, 0x00, 0x00, 0x00, 0x00, 0x00, 0x0a, 0x00,
  0x10, 0x00, 0x0c, 0x00, 0x08, 0x00, 0x04, 0x00, 0x0a, 0x00, 0x00, 0x00,
  0x03, 0x00, 0x00, 0x00, 0x02, 0x00, 0x00, 0x00, 0x04, 0x00, 0x00, 0x00,
  0x06, 0x00, 0x00, 0x00, 0x32, 0x2e, 0x31, 0x31, 0x2e, 0x31, 0x00, 0x00,
  0x82, 0xec, 0xff, 0xff, 0x04, 0x00, 0x00, 0x00, 0x10, 0x00, 0x00, 0x00,
  0x31, 0x2e, 0x35, 0x2e, 0x30, 0x00, 0x00, 0x00, 0x00, 0x00, 0x00, 0x00,
  0x00, 0x00, 0x00, 0x00, 0xa4, 0xe1, 0xff, 0xff, 0xa8, 0xe1, 0xff, 0xff,
  0xac, 0xe1, 0xff, 0xff, 0xb0, 0xe1, 0xff, 0xff, 0xb4, 0xe1, 0xff, 0xff,
  0xb8, 0xe1, 0xff, 0xff, 0xbc, 0xe1, 0xff, 0xff, 0xc0, 0xe1, 0xff, 0xff,
  0xc4, 0xe1, 0xff, 0xff, 0xc8, 0xe1, 0xff, 0xff, 0xcc, 0xe1, 0xff, 0xff,
  0xca, 0xec, 0xff, 0xff, 0x04, 0x00, 0x00, 0x00, 0x80, 0x06, 0x00, 0x00,
  0x57, 0x3e, 0x01, 0x3d, 0xad, 0x48, 0xb6, 0x3d, 0x64, 0xa4, 0x05, 0x3e,
  0xcd, 0xc6, 0x63, 0x3e, 0x64, 0x3f, 0x20, 0x3e, 0xa1, 0x4d, 0x9f, 0x3d,
  0xc6, 0x41, 0x80, 0xbe, 0x2b, 0x7e, 0x8a, 0xbe, 0x9b, 0x66, 0xb9, 0xbd,
  0x9b, 0x6f, 0xc5, 0xbe, 0x40, 0xe9, 0x0e, 0xbe, 0x14, 0xe2, 0xe9, 0xbe,
  0xe6, 0x7f, 0xa6, 0xbe, 0x55, 0x92, 0x4e, 0x3e, 0x07, 0xb2, 0x4c, 0xbd,
  0x58, 0x89, 0xc0, 0xbd, 0x1f, 0x8f, 0xa8, 0x3d, 0x38, 0x62, 0xbc, 0x3d,
  0x19, 0x22, 0xa4, 0x3e, 0x21, 0xd5, 0x04, 0xbe, 0x77, 0xed, 0x29, 0x3e,
  0xcd, 0x97, 0x54, 0x3d, 0x02, 0x14, 0xe0, 0xbd, 0xf7, 0xaa, 0x21, 0xbc,
  0x05, 0xc9, 0x11, 0xbe, 0x6c, 0xac, 0xbe, 0xbe, 0xc1, 0x74, 0x09, 0xbd,
  0x27, 0xa2, 0x00, 0xbe, 0xd9, 0xb4, 0x49, 0xbe, 0x53, 0x11, 0x78, 0x3e,
  0x36, 0x09, 0xe8, 0xbd, 0x23, 0xe9, 0x34, 0x3e, 0x92, 0x5b, 0xa8, 0x3c,
  0xda, 0xfc, 0xa1, 0x3e, 0x16, 0x9a, 0x6f, 0x3e, 0xde, 0xe5, 0xcd, 0xbd,
  0x28, 0x7d, 0x93, 0x3d, 0x34, 0xc7, 0x40, 0xbc, 0xe1, 0x12, 0x25, 0xbe,
  0x8f, 0x6f, 0xc6, 0x3d, 0x80, 0x33, 0x54, 0xbe, 0x00, 0xea, 0xc2, 0xbd,
  0xe4, 0x56, 0x99, 0xbe, 0x22, 0x52, 0x79, 0x3b, 0x2f, 0x91, 0x6d, 0xbe,
  0x0a, 0x32, 0xda, 0x3d, 0x4e, 0xd5, 0x9f, 0xbe, 0xd8, 0x32, 0xdf, 0x3b,
  0x3c, 0xb8, 0xb8, 0xbd, 0x4a, 0x36, 0x4a, 0x3e, 0x91, 0x8f, 0x6f, 0x3e,
  0x1e, 0x0e, 0x0f, 0xbe, 0xa0, 0xaa, 0xea, 0x3d, 0x75, 0x37, 0x1d, 0x3d,
  0xd2, 0x23, 0x07, 0xbe, 0xa8, 0x93, 0x22, 0x3e, 0xe2, 0x56, 0x50, 0xbd,
  0x6d, 0xa6, 0x92, 0xbe, 0x7f, 0xee, 0x8d, 0xbd, 0x84, 0x3f, 0x05, 0xbd,
  0x16, 0x26, 0x6e, 0xbe, 0x07, 0xf5, 0xaa, 0x3d, 0xdd, 0x99, 0xb1, 0xbe,
  0xcb, 0x5c, 0x11, 0xbe, 0x4e, 0x33, 0x7a, 0xbe, 0xc8, 0x03, 0x3a, 0x3e,
  0x09, 0x85, 0x1f, 0x3e, 0xf1, 0xe3, 0x14, 0x3e, 0x65, 0xcd, 0x82, 0x3d,
  0x4e, 0x88, 0x61, 0x3e, 0x9d, 0xca, 0x55, 0xbe, 0xd1, 0x96, 0xfb, 0x3c,
  0xca, 0xbb, 0x27, 0x3d, 0x4b, 0xbe, 0xa5, 0xbd, 0x45, 0xaa, 0x95, 0xbe,
  0x5b, 0x97, 0x83, 0xbd, 0xaa, 0x4b, 0x84, 0xbe, 0x0c, 0x2c, 0x21, 0x3e,
  0x37, 0x36, 0x5f, 0xbe, 0x7b, 0xfb, 0x53, 0xbd, 0x4b, 0xc9, 0x5e, 0xbe,
  0x52, 0xa2, 0xbe, 0xbc, 0xe0, 0x76, 0xea, 0x3c, 0xf6, 0xf4, 0xf4, 0x3d,
  0x35, 0x4d, 0xfa, 0x3d, 0x58, 0xa8, 0x1e, 0x3e, 0x32, 0x10, 0x5b, 0xbc,
  0xfa, 0xcb, 0x57, 0x3d, 0xaa, 0x51, 0xeb, 0xbd, 0xa7, 0x1f, 0x10, 0xbe,
  0x4d, 0xbe, 0x06, 0xbe, 0xeb, 0xac, 0x10, 0xbd, 0x50, 0x7e, 0x8b, 0xbe,
  0xba, 0x60, 0xad, 0x3d, 0x6e, 0x27, 0x8f, 0xbe, 0x7d, 0x0b, 0xd7, 0xbd,
  0x34, 0xa5, 0x80, 0xbe, 0x3b, 0xa5, 0x3a, 0x3e, 0xcf, 0x9d, 0x84, 0x3e,
  0x28, 0x88, 0x06, 0x3e, 0x74, 0x37, 0x87, 0x3e, 0xe5, 0xf1, 0x06, 0x3e,
  0x91, 0x3b, 0xde, 0xbd, 0xa4, 0xa7, 0x66, 0x3e, 0xa0, 0x7e, 0x99, 0xbe,
  0x6b, 0x8f, 0xd8, 0x3d, 0x94, 0xbc, 0x15, 0xbe, 0x72, 0x04, 0x08, 0x3e,
  0x74, 0x01, 0xaf, 0xbe, 0xe6, 0x60, 0x22, 0x3e, 0x68, 0xdb, 0x82, 0xbc,
  0x1d, 0x0e, 0xb3, 0xbe, 0x61, 0x96, 0x11, 0xbe, 0x15, 0x93, 0x87, 0x3e,
  0x78, 0x96, 0xb9, 0x3d, 0xae, 0xe5, 0x1a, 0x3e, 0x64, 0x57, 0xf0, 0x3e,
  0x07, 0x1c, 0x96, 0x3d, 0xd9, 0x63, 0x89, 0xbe, 0xb2, 0x72, 0x55, 0x3e,
  0x70, 0x55, 0xd8, 0xbe, 0x5a, 0x37, 0xdd, 0xbd, 0x61, 0xc7, 0x02, 0xbe,
  0x8a, 0x69, 0xb4, 0xbc, 0x1f, 0xa9, 0x47, 0xbe, 0x4b, 0x98, 0x66, 0x3d,
  0x90, 0x58, 0xfe, 0xbc, 0xcb, 0xbe, 0x8d, 0xbe, 0x8c, 0x38, 0x1f, 0xbe,
  0x19, 0x19, 0x25, 0x3e, 0xc4, 0x79, 0xf8, 0x3d, 0x60, 0x58, 0x2d, 0x3e,
  0x7c, 0x10, 0xd1, 0x3d, 0xa9, 0x71, 0x60, 0x3e, 0x48, 0xb5, 0xd0, 0xbd,
  0xa3, 0xe7, 0x03, 0x3f, 0x04, 0xef, 0xbf, 0xbe, 0x37, 0x1a, 0xcc, 0x3d,
  0x8c, 0xfa, 0x8e, 0xbe, 0x1a, 0x0a, 0x29, 0xbe, 0xa1, 0x25, 0xf7, 0x3c,
  0xfc, 0xb5, 0xa9, 0x3c, 0xca, 0x4b, 0x95, 0xbe, 0xec, 0x10, 0x9b, 0xbe,
  0x67, 0xa3, 0x84, 0xbd, 0x11, 0xa8, 0xbb, 0x3d, 0x9d, 0x26, 0x37, 0x3e,
  0x97, 0xb7, 0x87, 0x3e, 0xcd, 0x76, 0x8b, 0x3d, 0x0f, 0x51, 0x3c, 0x3e,
  0xfb, 0xb6, 0x6f, 0xbe, 0x16, 0xde, 0x39, 0x3e, 0x92, 0x94, 0xb5, 0xbe,
  0x90, 0xcf, 0xc4, 0xbd, 0x50, 0xa6, 0x90, 0xbe, 0x8f, 0xa3, 0xad, 0xbe,
  0x58, 0x5a, 0x9d, 0xbe, 0xed, 0x49, 0x1c, 0x3e, 0x8d, 0xcc, 0x97, 0xbe,
  0x7a, 0x1c, 0xa7, 0xbe, 0x4d, 0xcf, 0x91, 0xbd, 0xe2, 0x05, 0x47, 0x3e,
  0x44, 0xd0, 0xe6, 0x3d, 0x4d, 0x0d, 0xe9, 0x3d, 0x95, 0xf7, 0xe1, 0x3c,
  0xf4, 0xf1, 0x96, 0x3d, 0x29, 0x07, 0x83, 0xbd, 0x81, 0x76, 0xce, 0x3e,
  0xf2, 0x23, 0x98, 0xbe, 0x45, 0xc5, 0x7c, 0xbe, 0xf2, 0x33, 0xca, 0xbe,
  0x28, 0x47, 0xa4, 0xbe, 0xe9, 0x5f, 0x14, 0xbe, 0x3c, 0x8d, 0x50, 0x3d,
  0xa7, 0x2b, 0x9b, 0xbd, 0xf8, 0x41, 0x0b, 0xbe, 0x66, 0x0d, 0x95, 0xbd,
  0xd6, 0x00, 0x84, 0x3d, 0x1b, 0x80, 0x4a, 0x3e, 0xa9, 0x11, 0x6d, 0x3e,
  0xf2, 0x7b, 0x09, 0x3e, 0xfa, 0xe5, 0x28, 0x3e, 0xb6, 0xf6, 0xac, 0xbe,
  0xed, 0xa4, 0xa2, 0xbd, 0x27, 0x16, 0x8d, 0xbe, 0x5d, 0x2c, 0x70, 0xbe,
  0x6b, 0xbb, 0xe3, 0xbc, 0x8e, 0xb2, 0x53, 0xbe, 0x1d, 0xf3, 0x67, 0xbe,
  0x60, 0x5b, 0x20, 0x3d, 0x8c, 0xf9, 0x7d, 0xbe, 0x2f, 0xac, 0xee, 0xbe,
  0xf6, 0xa6, 0x1c, 0x3c, 0xbe, 0x0d, 0x92, 0x3d, 0x70, 0x7c, 0x95, 0x3b,
  0x5f, 0xcb, 0x33, 0x3e, 0x9e, 0xd7, 0x0f, 0x3d, 0x3e, 0x89, 0x78, 0x3c,
  0x65, 0xc3, 0xac, 0xbd, 0x7e, 0x56, 0x93, 0x3e, 0x06, 0x91, 0xb9, 0xbd,
  0xf7, 0x5c, 0x88, 0xbe, 0xf7, 0x37, 0x2c, 0x3e, 0x63, 0xa6, 0x9a, 0xbe,
  0xb6, 0xf2, 0x3a, 0xbe, 0xcd, 0x30, 0xcc, 0xbd, 0xc8, 0x8f, 0x0d, 0xbe,
  0x53, 0xf0, 0x90, 0xbd, 0x42, 0xa1, 0x22, 0x3e, 0x57, 0xb7, 0x52, 0xbe,
  0xd6, 0x28, 0x84, 0xbd, 0x79, 0xb1, 0xe2, 0xbd, 0x0e, 0xd2, 0xf5, 0xbd,
  0xe0, 0xdb, 0x3c, 0xbe, 0x7f, 0xa5, 0x0f, 0x3d, 0x4b, 0x62, 0x4e, 0x3e,
  0x93, 0xad, 0xb6, 0xbc, 0x98, 0x49, 0x0d, 0x3f, 0x18, 0x02, 0x03, 0xbe,
  0xb0, 0x48, 0x80, 0x3e, 0x06, 0x6e, 0x33, 0x3e, 0x2b, 0xae, 0x92, 0x3d,
  0x53, 0x94, 0x79, 0x3d, 0xf2, 0x7e, 0x08, 0x3e, 0x67, 0x87, 0xb8, 0x3c,
  0x01, 0xf2, 0x0d, 0xbe, 0xf9, 0x19, 0x64, 0xbe, 0x70, 0xbf, 0x02, 0xbe,
  0x7c, 0xc9, 0x20, 0x3d, 0x47, 0x03, 0xa3, 0xbc, 0x49, 0x0a, 0x0a, 0x3e,
  0x81, 0x1e, 0x17, 0x3e, 0xd0, 0xe1, 0x2f, 0x3e, 0xc2, 0x39, 0x64, 0x3e,
  0xa6, 0x21, 0x1b, 0x3e, 0xb8, 0xa6, 0x61, 0x3d, 0x4a, 0xe1, 0x82, 0x3e,
  0xaf, 0x2a, 0x21, 0xbd, 0x26, 0x03, 0x42, 0x3d, 0xbd, 0x9a, 0xef, 0x3d,
  0x3d, 0xc4, 0x14, 0x3d, 0x95, 0x5c, 0x0a, 0xbe, 0xdf, 0xe8, 0xfb, 0xbd,
  0x60, 0xc2, 0xc6, 0xbd, 0xca, 0x49, 0x28, 0xbe, 0x38, 0x38, 0x95, 0xbe,
  0xcf, 0xa7, 0xa1, 0x3e, 0xd4, 0x7d, 0x28, 0x3e, 0xb6, 0xb7, 0x0b, 0x3e,
  0x15, 0xb9, 0xb6, 0x3e, 0x7b, 0x12, 0x0b, 0x3e, 0x0a, 0x37, 0xa2, 0xbc,
  0xd8, 0xa2, 0x13, 0x3e, 0x78, 0xd3, 0x86, 0x3d, 0xa9, 0x68, 0x27, 0x3e,
  0x07, 0xcf, 0x73, 0xbd, 0x37, 0x54, 0x6f, 0x3e, 0x62, 0x6c, 0x9b, 0xbe,
  0x0b, 0x93, 0x2e, 0xbe, 0xd2, 0xdb, 0xe9, 0xbd, 0x37, 0x3a, 0x4d, 0xbd,
  0x65, 0xeb, 0x82, 0xbd, 0x4e, 0xbe, 0xb8, 0x3e, 0xc8, 0xe6, 0x9d, 0xbe,
  0x49, 0x86, 0x0c, 0xbd, 0x76, 0xd4, 0x3a, 0x3c, 0x7b, 0xf0, 0x9c, 0x3e,
  0xbe, 0x7c, 0x23, 0x3e, 0xe0, 0x5f, 0x2f, 0x3e, 0x44, 0x0a, 0x47, 0xbe,
  0xf9, 0x04, 0x0c, 0x3e, 0xb6, 0x1a, 0xa7, 0x3d, 0x0e, 0x49, 0x93, 0x3e,
  0x7a, 0xe8, 0x0a, 0xbe, 0x84, 0x96, 0x18, 0xbe, 0x05, 0x0e, 0xf3, 0xbd,
  0x46, 0xf5, 0x04, 0xbe, 0xa1, 0xce, 0x2e, 0xbe, 0x77, 0xc4, 0x3f, 0x3d,
  0x30, 0x71, 0x5e, 0xbd, 0xb1, 0x9d, 0xab, 0x3c, 0xab, 0x08, 0xda, 0x3d,
  0xc3, 0xa9, 0x15, 0x3e, 0x14, 0x17, 0xf9, 0xbd, 0xf4, 0x9f, 0xed, 0x3d,
  0x7e, 0x75, 0x3e, 0xbe, 0xf8, 0xd3, 0x73, 0x3e, 0x9e, 0xd4, 0xfb, 0xba,
  0x07, 0xb9, 0x01, 0x3e, 0x47, 0xfe, 0x01, 0xbd, 0x2b, 0xc9, 0xdb, 0xbd,
  0xf9, 0x02, 0xcf, 0xbd, 0x39, 0xba, 0x0d, 0xbe, 0xe5, 0x59, 0x8e, 0xbe,
  0x64, 0x18, 0x0f, 0x3e, 0x5f, 0x87, 0x72, 0xbd, 0x5f, 0x0f, 0x7a, 0x3d,
  0xfc, 0x40, 0x2c, 0x3e, 0x0d, 0xb0, 0x57, 0x3e, 0xc7, 0x34, 0xcf, 0x3d,
  0xd6, 0x62, 0x71, 0x3e, 0x78, 0x48, 0x43, 0xbe, 0x4a, 0x3e, 0x23, 0x3d,
  0x45, 0xbb, 0x0e, 0x3e, 0x5c, 0xe5, 0xd2, 0x3e, 0x8a, 0xe3, 0x8c, 0xbc,
  0xb4, 0xe9, 0x14, 0xbd, 0x9d, 0x59, 0x17, 0xbe, 0x26, 0xae, 0x96, 0xbd,
  0x89, 0xe7, 0xc4, 0xbd, 0x3b, 0x43, 0xfd, 0x3d, 0x7e, 0xe7, 0xfd, 0xbd,
  0x4c, 0xb6, 0x4b, 0x3e, 0xb8, 0xed, 0x49, 0x3d, 0x54, 0xb4, 0x13, 0xbd,
  0x64, 0x4c, 0x83, 0xbc, 0x5d, 0xaa, 0x37, 0x3e, 0x26, 0x0b, 0x6e, 0xbe,
  0x75, 0xb8, 0x19, 0xbc, 0xda, 0x4d, 0x68, 0x3e, 0x00, 0xb4, 0xe0, 0x3d,
  0x46, 0xd4, 0xdf, 0xbd, 0xf9, 0xbf, 0x1a, 0xbe, 0xe1, 0xd1, 0x4c, 0x3c,
  0xdd, 0xbe, 0x82, 0xbe, 0x11, 0xb8, 0xe1, 0xbd, 0x67, 0x3c, 0x8b, 0x3e,
  0x0a, 0xb3, 0x03, 0xbf, 0xbc, 0x76, 0x99, 0x3e, 0xd2, 0x2f, 0x1a, 0xbe,
  0xf7, 0xd5, 0x11, 0x3e, 0xaa, 0xcc, 0xf1, 0x3d, 0x50, 0xef, 0xb4, 0x3e,
  0xb5, 0xd4, 0x72, 0xbe, 0xe1, 0x35, 0x8b, 0x3e, 0xe0, 0xfa, 0xc0, 0x3d,
  0x6c, 0x83, 0x98, 0x3d, 0x0f, 0x3f, 0xb3, 0xbd, 0x24, 0x56, 0x82, 0xbe,
  0xab, 0x0d, 0x86, 0xbd, 0x90, 0x4e, 0xa2, 0xbd, 0x86, 0x7e, 0x9d, 0xbd,
  0x48, 0xa0, 0x84, 0x3e, 0x3b, 0x02, 0x21, 0xbf, 0xe2, 0xf7, 0x4b, 0x3e,
  0xa0, 0xd6, 0x7a, 0xbd, 0xb6, 0x36, 0x84, 0x3e, 0xf0, 0x78, 0x9a, 0x3e,
  0xb3, 0x27, 0x25, 0x3e, 0x1f, 0x4d, 0xa5, 0x3b, 0xc0, 0xde, 0x05, 0x3e,
  0x2e, 0x21, 0xc2, 0x3e, 0x82, 0x96, 0x9b, 0xbd, 0x76, 0xa2, 0x7b, 0xbe,
  0x71, 0x3e, 0x84, 0xbe, 0x7f, 0x96, 0xb4, 0xbd, 0x8e, 0x25, 0xf1, 0x3b,
  0x9b, 0x5c, 0x60, 0x3d, 0x3d, 0x01, 0xc0, 0x3c, 0x92, 0xf8, 0x43, 0xbd,
  0x6c, 0x61, 0xcd, 0x3e, 0x9a, 0xd6, 0xbb, 0xbd, 0x59, 0x0d, 0xcf, 0x3e,
  0x4a, 0x3b, 0x8a, 0x3e, 0x6d, 0x98, 0xaa, 0x3e, 0x81, 0xac, 0xd5, 0xbd,
  0x5d, 0x74, 0x11, 0x3e, 0x79, 0x85, 0x28, 0x3e, 0xa5, 0x62, 0x88, 0xbd,
  0x66, 0xe6, 0x6c, 0xbe, 0x40, 0x80, 0x28, 0xbe, 0x0c, 0x86, 0x1e, 0xbd,
  0x6c, 0x36, 0x1b, 0xbe, 0xca, 0xe1, 0x52, 0xbe, 0xa2, 0x61, 0x47, 0x3e,
  0x71, 0xb5, 0x13, 0xbe, 0x0c, 0x35, 0x5f, 0x3e, 0xb1, 0x8f, 0x8d, 0x3e,
  0x0a, 0xcd, 0x4a, 0x3e, 0x66, 0xe7, 0xd6, 0x3e, 0xfc, 0x50, 0x25, 0x3e,
  0x3d, 0x15, 0xc4, 0xbd, 0xdc, 0xf3, 0x61, 0x3e, 0x7e, 0x6f, 0x89, 0x3d,
  0x07, 0xd1, 0x8d, 0x3e, 0xea, 0xb5, 0xc6, 0xbd, 0x07, 0xc4, 0x88, 0x3c,
  0x11, 0x93, 0x0f, 0xbe, 0x7c, 0xd7, 0x60, 0xbd, 0x7d, 0x63, 0x1b, 0xbe,
  0x15, 0xa5, 0x98, 0x3e, 0xd9, 0xb2, 0xa8, 0x3c, 0x1a, 0x8d, 0x3c, 0x3e,
  0xf3, 0x93, 0x3e, 0xbd, 0x47, 0x9b, 0x25, 0xbd, 0xd1, 0x3c, 0x82, 0x3d,
  0xaa, 0xd1, 0x37, 0x3e, 0xad, 0x9c, 0xbb, 0x3c, 0xe1, 0x81, 0xfc, 0x39,
  0x49, 0x89, 0x2d, 0x3e, 0xa8, 0xb0, 0x86, 0xbc, 0x0e, 0x0c, 0xb9, 0xbd,
  0xa7, 0xf5, 0xe7, 0x3d, 0x55, 0x74, 0xc2, 0xbe, 0x19, 0x91, 0x07, 0x3e,
  0x66, 0xb2, 0xaf, 0xbd, 0x99, 0xdc, 0x0b, 0x3e, 0x6e, 0x21, 0xb4, 0xbe,
  0x26, 0xba, 0xbc, 0x3c, 0x52, 0x86, 0x45, 0x3e, 0xd5, 0x0a, 0xac, 0xbd,
  0xbe, 0xfc, 0xd3, 0x3d, 0x8a, 0x77, 0x54, 0x3e, 0xa0, 0x24, 0x1e, 0xbe,
  0xf4, 0xdb, 0xd5, 0x3c, 0xd2, 0x30, 0x8f, 0x3d, 0x56, 0xf3, 0xff, 0xff,
  0x04, 0x00, 0x00, 0x00, 0x08, 0x00, 0x00, 0x00, 0xff, 0xff, 0xff, 0xff,
  0xd0, 0x00, 0x00, 0x00, 0x6a, 0xf3, 0xff, 0xff, 0x04, 0x00, 0x00, 0x00,
  0x08, 0x00, 0x00, 0x00, 0xc2, 0x29, 0x0a, 0x3f, 0xb2, 0x29, 0x0a, 0xbf,
  0x7e, 0xf3, 0xff, 0xff, 0x04, 0x00, 0x00, 0x00, 0x00, 0x06, 0x00, 0x00,
  0xe3, 0xcb, 0x67, 0xbf, 0x52, 0x0e, 0xc2, 0xbf, 0xa8, 0xed, 0xac, 0xbd,
  0xa2, 0xc6, 0x88, 0xbe, 0xdc, 0x89, 0xb2, 0xbe, 0xe4, 0x19, 0xa8, 0x3e,
  0xd7, 0xa1, 0x74, 0xbf, 0x62, 0xb9, 0xc0, 0xbe, 0x35, 0x81, 0x3a, 0xbf,
  0x95, 0x66, 0x4f, 0xbe, 0x33, 0x73, 0x9f, 0x3d, 0x5a, 0x25, 0x2e, 0xbf,
  0xf3, 0xc7, 0xe6, 0xbd, 0x1f, 0x34, 0x14, 0xbe, 0x7d, 0x36, 0xc3, 0xbc,
  0xe0, 0x93, 0x01, 0xbf, 0x0a, 0x11, 0xf5, 0x3e, 0x49, 0x90, 0xd3, 0x3c,
  0x5f, 0x7d, 0xb6, 0xbc, 0xc7, 0xf1, 0x6a, 0xbf, 0x8d, 0x4b, 0xd4, 0x3e,
  0xd4, 0x59, 0x1a, 0xbf, 0xcc, 0xe6, 0x49, 0x3e, 0x42, 0xcb, 0x39, 0xbf,
  0x12, 0xe4, 0x5d, 0xbe, 0xb8, 0x0e, 0x24, 0x3f, 0xe6, 0x8a, 0x5b, 0x3e,
  0xb6, 0xad, 0x9f, 0xbe, 0x87, 0xc3, 0x22, 0x3c, 0xe3, 0x26, 0xa6, 0xbe,
  0x89, 0xad, 0xbf, 0x3c, 0x27, 0x1a, 0x54, 0x3e, 0x23, 0x61, 0x11, 0xbd,
  0x77, 0xa7, 0xb9, 0xbe, 0x37, 0x28, 0xdb, 0x3d, 0x97, 0xae, 0x74, 0xbe,
  0xaf, 0x69, 0x12, 0x3d, 0x36, 0x62, 0x42, 0xbd, 0xb0, 0xdf, 0x5b, 0xbd,
  0xf2, 0xec, 0xa0, 0x3e, 0x24, 0x18, 0xbb, 0xbd, 0xc0, 0x66, 0xcf, 0xbe,
  0xac, 0xcd, 0xb9, 0x3e, 0x00, 0x55, 0xb5, 0xbe, 0x7b, 0xa7, 0x09, 0x3e,
  0x8c, 0x96, 0x4d, 0x3d, 0x91, 0xd7, 0x50, 0x3c, 0xaa, 0x8c, 0xe8, 0xbe,
  0xbe, 0x53, 0x36, 0xbf, 0xe6, 0xbb, 0x6f, 0xbe, 0xf4, 0xd3, 0x1b, 0xbe,
  0xcf, 0xd0, 0x7c, 0xbd, 0xef, 0x79, 0xca, 0x3d, 0xdf, 0x6f, 0x11, 0xbd,
  0x56, 0xc1, 0x31, 0x3e, 0xde, 0xe8, 0xc1, 0xbe, 0xaa, 0xd4, 0x1e, 0xbf,
  0xd9, 0x48, 0x20, 0x3c, 0xf7, 0xad, 0x0b, 0xbf, 0x3f, 0x3c, 0x31, 0xbe,
  0x8d, 0xdd, 0x15, 0xbe, 0xc1, 0xdf, 0x0c, 0xbe, 0xc5, 0xbe, 0x25, 0xbd,
  0xf4, 0xb6, 0x46, 0x3f, 0xd9, 0x4a, 0xcb, 0xbe, 0x3b, 0x92, 0x48, 0xbe,
  0x2c, 0x11, 0x53, 0x3f, 0x43, 0xf1, 0xb9, 0x3c, 0xd5, 0x46, 0x82, 0x3d,
  0x6b, 0x7c, 0xda, 0xbd, 0xc8, 0xd3, 0x0b, 0xbe, 0xf0, 0x2e, 0x65, 0xbe,
  0x60, 0x2b, 0x8b, 0xbd, 0xd0, 0xbf, 0x78, 0xbe, 0x23, 0x9f, 0x2b, 0x3f,
  0x3c, 0x44, 0x99, 0x3e, 0x48, 0x0a, 0x3a, 0xbc, 0x11, 0xa9, 0x5f, 0xbf,
  0x85, 0x72, 0xea, 0xbd, 0xde, 0x6c, 0x0b, 0x3e, 0x03, 0x4f, 0xe1, 0xbd,
  0x95, 0xcd, 0x58, 0xbe, 0x00, 0x61, 0xdd, 0xbe, 0x6a, 0x6e, 0xf0, 0xbc,
  0x67, 0xaa, 0x1a, 0xbe, 0x2d, 0x57, 0x41, 0xbf, 0xea, 0xea, 0xb5, 0xbd,
  0x38, 0xe8, 0x27, 0x3f, 0xa8, 0xfb, 0x84, 0x3c, 0x68, 0x6d, 0x18, 0x3e,
  0xb3, 0x37, 0x17, 0x3f, 0xe4, 0x4d, 0x1a, 0xbf, 0x66, 0x54, 0x51, 0xbe,
  0x6f, 0x9c, 0x6b, 0xbf, 0xc5, 0x76, 0xc7, 0xbd, 0xe3, 0xab, 0x5a, 0xbf,
  0xa0, 0x34, 0x61, 0xbc, 0x31, 0xe0, 0xf6, 0xbe, 0xa4, 0xd8, 0xb3, 0x3d,
  0x87, 0x71, 0x92, 0x3e, 0x9b, 0xc5, 0x6f, 0x3d, 0x25, 0xf0, 0xc7, 0xbf,
  0x8b, 0x7d, 0xd1, 0xbd, 0x48, 0x59, 0x07, 0x3e, 0x4b, 0x8c, 0x22, 0x3c,
  0x37, 0x39, 0x84, 0xbe, 0xb7, 0xe2, 0xaa, 0x3d, 0xf4, 0xc1, 0xc7, 0xbf,
  0xbc, 0x8a, 0xbe, 0x3d, 0xf3, 0x07, 0xf8, 0xbe, 0x84, 0xfc, 0x33, 0xbe,
  0x0f, 0x47, 0xe7, 0x3e, 0x5c, 0x98, 0x3f, 0x3c, 0xe7, 0x3d, 0xf6, 0x3e,
  0xba, 0xda, 0x74, 0xbc, 0x11, 0x9f, 0x16, 0xc0, 0x25, 0x41, 0x16, 0xbd,
  0xac, 0x82, 0x22, 0xbf, 0xd0, 0x68, 0x29, 0x3d, 0xe5, 0x33, 0xd1, 0x3e,
  0xac, 0x6c, 0x6f, 0xbe, 0xb8, 0x30, 0xfa, 0x3e, 0xa6, 0xe8, 0xb0, 0x3e,
  0x56, 0x34, 0xaf, 0xbc, 0xc8, 0xd2, 0x93, 0x3d, 0x8d, 0x8e, 0x75, 0xbe,
  0x23, 0xa8, 0x01, 0xbe, 0x4a, 0xb6, 0xc2, 0x3e, 0x8a, 0xe2, 0x56, 0xbf,
  0xe4, 0xc1, 0xe0, 0xbd, 0xf5, 0x2f, 0x15, 0x3e, 0xe7, 0x59, 0x85, 0xbe,
  0x3e, 0x40, 0xb8, 0x3c, 0x43, 0x38, 0x0b, 0xbf, 0x5f, 0x01, 0xf4, 0xbd,
  0x21, 0x29, 0xb7, 0x3e, 0x39, 0xa8, 0x57, 0x3c, 0xce, 0x6d, 0x3a, 0x3e,
  0xf1, 0x34, 0xa5, 0x3e, 0x82, 0x4c, 0x0b, 0xbf, 0x03, 0xec, 0x18, 0xbb,
  0x3e, 0xdb, 0xfa, 0xbe, 0x32, 0xa6, 0x53, 0xbd, 0xdd, 0x98, 0x9d, 0x3e,
  0x40, 0x37, 0xbc, 0x3e, 0x28, 0xd2, 0x8c, 0xbe, 0x19, 0xc0, 0x20, 0xbe,
  0x6e, 0x66, 0x1b, 0x3f, 0xb1, 0x6e, 0x88, 0x3e, 0x3a, 0x4a, 0xc2, 0xbe,
  0x50, 0x7f, 0x06, 0xbe, 0x10, 0x25, 0x03, 0xbf, 0x5c, 0x03, 0x2a, 0xbc,
  0xda, 0x9d, 0x68, 0xbf, 0xcc, 0x0a, 0xd3, 0xbd, 0xdc, 0x08, 0x9c, 0xbe,
  0xb5, 0x93, 0x02, 0xbe, 0x93, 0xa6, 0x81, 0xbe, 0x49, 0x42, 0x40, 0xbf,
  0x07, 0x5a, 0x78, 0xbf, 0x40, 0x54, 0x02, 0x3e, 0x41, 0xc4, 0x2b, 0xbf,
  0xb1, 0x08, 0x7f, 0xbd, 0x70, 0x28, 0x60, 0x3e, 0xba, 0xca, 0x0b, 0xbd,
  0xe3, 0x06, 0xcb, 0x3e, 0x76, 0xb9, 0x3b, 0xbf, 0x61, 0x8d, 0x41, 0xbf,
  0xd4, 0x1e, 0xba, 0xbf, 0xfc, 0xc8, 0x62, 0xbd, 0x2f, 0x9f, 0x0a, 0xbd,
  0x34, 0x33, 0x83, 0xbe, 0xe3, 0xc5, 0xcd, 0xbd, 0x86, 0xc2, 0xcc, 0x3d,
  0x99, 0x3e, 0x57, 0xbf, 0x2f, 0xb7, 0x03, 0x3f, 0xce, 0x2f, 0xd7, 0xbe,
  0x4c, 0xec, 0xd4, 0xbd, 0xf9, 0xcf, 0xb2, 0x3e, 0x51, 0xd3, 0xc1, 0xbe,
  0x9d, 0x05, 0x0e, 0x3e, 0x01, 0x4d, 0x94, 0x3d, 0x7b, 0x94, 0x10, 0xbd,
  0x39, 0x0e, 0xa9, 0xbd, 0xc9, 0x68, 0x22, 0xbf, 0xaa, 0x79, 0x76, 0xbe,
  0x05, 0x2a, 0x1f, 0x3f, 0xe1, 0x38, 0x7e, 0xbd, 0x36, 0x84, 0xe4, 0x3c,
  0xe4, 0x36, 0x1e, 0x3f, 0x31, 0x1a, 0x39, 0xbd, 0x06, 0xbf, 0x7e, 0xbe,
  0x91, 0xee, 0x76, 0x3e, 0xd3, 0xba, 0x3b, 0xbe, 0x28, 0x81, 0x2b, 0xbe,
  0x7e, 0xfe, 0x9f, 0xbe, 0x3e, 0x1e, 0x15, 0x3f, 0xe0, 0x56, 0x20, 0xbf,
  0x25, 0xaf, 0x14, 0xbe, 0xda, 0xb3, 0x2e, 0x3e, 0x45, 0xfd, 0x1b, 0x3d,
  0xe3, 0x67, 0xe1, 0xbe, 0x66, 0xbc, 0xa2, 0xbe, 0x1e, 0xe4, 0xa8, 0xbe,
  0xd5, 0x61, 0x73, 0xbe, 0xc5, 0x91, 0x04, 0xbf, 0x44, 0xd0, 0x0c, 0xbf,
  0xdf, 0xc2, 0xbe, 0xbe, 0x7e, 0xfb, 0x93, 0xc0, 0xf9, 0x6f, 0xf1, 0xbe,
  0x70, 0xf3, 0xd5, 0xbd, 0x37, 0xbe, 0xd2, 0xbe, 0x34, 0x71, 0x8b, 0xbe,
  0xfe, 0xcb, 0x2d, 0x3e, 0xda, 0x93, 0xff, 0xbf, 0xf6, 0x88, 0xc0, 0xbe,
  0x52, 0x76, 0x2f, 0xbe, 0x23, 0x80, 0x89, 0xbf, 0x68, 0xf5, 0xac, 0xbd,
  0x44, 0x45, 0x8a, 0x3d, 0xbf, 0x5c, 0xe8, 0x3d, 0x64, 0xcc, 0x8d, 0x3e,
  0xa9, 0xd0, 0x04, 0xc0, 0x58, 0x97, 0xc1, 0xbe, 0x7e, 0x72, 0x3c, 0xbf,
  0xa0, 0xaa, 0x22, 0xbe, 0xcd, 0xfa, 0x00, 0x3d, 0xb3, 0x3c, 0xa6, 0xbe,
  0xb7, 0x07, 0x42, 0xbe, 0xe0, 0x4c, 0x1a, 0xbe, 0x3f, 0x9a, 0x35, 0xbe,
  0x46, 0xa9, 0x99, 0xbe, 0x40, 0xe4, 0x38, 0xbe, 0x7f, 0x45, 0xd5, 0xbd,
  0x72, 0x73, 0xa4, 0xbd, 0x9f, 0xb3, 0x3b, 0xbf, 0x0d, 0x7e, 0x1d, 0xbe,
  0x48, 0x70, 0xb8, 0x3e, 0x46, 0xc9, 0x8f, 0x3d, 0x81, 0x33, 0x78, 0xbe,
  0xf1, 0x89, 0x67, 0xbd, 0xda, 0xbb, 0xc9, 0xbe, 0x13, 0x86, 0xfd, 0xbd,
  0xc3, 0x6b, 0x64, 0x3e, 0xa2, 0xab, 0xa4, 0x3e, 0x06, 0x9b, 0x12, 0xbe,
  0x42, 0xa9, 0x8d, 0xbf, 0xb7, 0x5b, 0x87, 0xbe, 0xab, 0x08, 0xaa, 0xbf,
  0xe0, 0x63, 0x1b, 0xbe, 0xa2, 0x45, 0x6a, 0xbe, 0x84, 0xfb, 0x39, 0x3e,
  0x8c, 0x37, 0x01, 0xbf, 0x40, 0xb2, 0xe1, 0xbc, 0xa4, 0x01, 0xc7, 0xbf,
  0xd1, 0x66, 0xce, 0xbe, 0x73, 0x27, 0x82, 0xc0, 0x5b, 0x23, 0x00, 0xbe,
  0x67, 0x20, 0xc5, 0xbe, 0xfe, 0xbf, 0x04, 0x3b, 0x99, 0xcb, 0xc3, 0xbf,
  0xe9, 0xf5, 0x2a, 0x3e, 0x9c, 0xc8, 0x86, 0xbf, 0xe3, 0xae, 0xed, 0xbd,
  0x20, 0x3d, 0xb5, 0xbf, 0xd7, 0x23, 0x17, 0xbf, 0x71, 0x9f, 0xaa, 0xbe,
  0xa0, 0xc4, 0x9d, 0x3d, 0x42, 0x03, 0xcf, 0x3e, 0x61, 0x34, 0x8a, 0xbd,
  0x95, 0x81, 0x9e, 0xbe, 0x0e, 0x45, 0x1b, 0xbe, 0xc1, 0x9e, 0xf4, 0xbf,
  0x69, 0x6a, 0xaf, 0xbe, 0x5d, 0xbe, 0xbe, 0xbe, 0x1b, 0x1d, 0x4d, 0x3d,
  0xec, 0xe5, 0x2b, 0xbe, 0xb7, 0x7a, 0x02, 0x3e, 0xc6, 0x19, 0x5e, 0xbf,
  0x59, 0x8a, 0x93, 0xbe, 0x56, 0x41, 0x5c, 0xc0, 0xd8, 0xb3, 0x76, 0xbe,
  0x71, 0xce, 0xdb, 0xbe, 0xcb, 0x35, 0x9d, 0x3d, 0x41, 0x0b, 0x7d, 0x3d,
  0x77, 0xb9, 0x26, 0xbd, 0xbe, 0x94, 0x4f, 0xbf, 0x42, 0x8c, 0xe3, 0xbe,
  0x7e, 0xe1, 0x9b, 0xbd, 0x48, 0x59, 0x72, 0xbf, 0xb2, 0x0e, 0xb2, 0xbe,
  0xfe, 0xb2, 0xb9, 0xbf, 0x17, 0xf7, 0x80, 0xbe, 0xf9, 0x92, 0xdd, 0x3d,
  0xec, 0xe3, 0xae, 0x3d, 0x5d, 0x19, 0x8d, 0x3d, 0xb8, 0xf3, 0x0b, 0x3f,
  0x37, 0x04, 0x91, 0xbf, 0x6e, 0x1e, 0x2d, 0xbe, 0x3e, 0xe5, 0xc5, 0xbe,
  0xc8, 0x30, 0x37, 0xbe, 0x2b, 0x86, 0xa9, 0xbe, 0x22, 0x89, 0xbd, 0xbd,
  0x9c, 0xa2, 0x35, 0x3e, 0xd7, 0xf5, 0xa0, 0xbd, 0x45, 0x14, 0x79, 0xbf,
  0x2a, 0x64, 0x96, 0xbe, 0xf3, 0x94, 0x36, 0xbe, 0x6d, 0x5e, 0xfb, 0x3e,
  0xdb, 0x62, 0x7d, 0xbe, 0x77, 0x01, 0xb2, 0xbe, 0xe4, 0x3c, 0x0c, 0xbe,
  0x8e, 0x6b, 0xa8, 0xbf, 0xf5, 0x76, 0x4a, 0xbd, 0x15, 0xf8, 0x86, 0xbc,
  0xf1, 0xfd, 0x3a, 0xbd, 0x5f, 0x4b, 0x3b, 0xbd, 0x30, 0x4f, 0x09, 0xbd,
  0x0b, 0x87, 0x06, 0xbd, 0x8a, 0x68, 0xf1, 0x3e, 0xb4, 0xdd, 0x0a, 0xc0,
  0xae, 0xed, 0x18, 0x3e, 0x91, 0x89, 0x67, 0xbd, 0x9a, 0x15, 0x68, 0x3d,
  0x4d, 0x0f, 0x5f, 0xbd, 0x59, 0x91, 0xae, 0xbe, 0xeb, 0x77, 0x76, 0xbd,
  0x9a, 0x87, 0x92, 0xbd, 0x36, 0x6b, 0xf9, 0xbd, 0x50, 0x70, 0x9b, 0x3e,
  0x07, 0x76, 0xca, 0x3e, 0xec, 0xbb, 0x86, 0x3c, 0x2d, 0x58, 0x98, 0xbd,
  0x31, 0x22, 0x93, 0xbe, 0x44, 0x7c, 0xa6, 0xbd, 0x3a, 0x04, 0xd9, 0x3e,
  0xef, 0x2c, 0x4e, 0xbd, 0x60, 0x0b, 0x23, 0xbd, 0x9e, 0x70, 0x32, 0xbe,
  0xcc, 0x3b, 0xb4, 0x3e, 0x6d, 0xa3, 0xff, 0xbf, 0x18, 0x23, 0x1f, 0x3e,
  0xa9, 0x42, 0xa9, 0xbd, 0xc1, 0x29, 0x49, 0xbf, 0x5a, 0x1a, 0x6e, 0xba,
  0x83, 0x33, 0x22, 0xbf, 0x51, 0x7e, 0x6a, 0xbe, 0xd0, 0x24, 0x8b, 0x3e,
  0xaa, 0x41, 0x7b, 0xc0, 0x8d, 0x18, 0x74, 0x3e, 0x6b, 0xaa, 0xa4, 0xbe,
  0xa9, 0xcb, 0x08, 0xbf, 0x60, 0x72, 0xf3, 0x3d, 0x54, 0x98, 0xa8, 0xbf,
  0x9e, 0x05, 0x41, 0xbe, 0x1f, 0x9f, 0x2b, 0x3e, 0x50, 0x20, 0x21, 0xc0,
  0x05, 0x52, 0x1b, 0x3e, 0xf9, 0xb8, 0x95, 0xbe, 0xd1, 0x91, 0x15, 0xbf,
  0x5d, 0x15, 0xe5, 0x3e, 0xaf, 0x6a, 0x39, 0xbe, 0xad, 0x4f, 0x5c, 0x3b,
  0xf0, 0x1c, 0x4f, 0xbe, 0x08, 0x49, 0x2f, 0xbe, 0xd0, 0x0b, 0xff, 0xbe,
  0x2e, 0x94, 0xfb, 0xbc, 0x79, 0x72, 0xb9, 0xbe, 0x87, 0x3a, 0xed, 0xbe,
  0xe8, 0x08, 0x09, 0xbf, 0xab, 0x47, 0x29, 0xbd, 0x32, 0x63, 0x0d, 0xbf,
  0xef, 0x39, 0xca, 0x3e, 0xd7, 0xbc, 0x77, 0xbe, 0xc9, 0x10, 0x5b, 0xbf,
  0x31, 0xba, 0xc8, 0x3d, 0xef, 0xf3, 0xf5, 0xbe, 0xa1, 0x9e, 0x26, 0xbe,
  0x92, 0x2c, 0x93, 0xbf, 0x86, 0x8d, 0x0e, 0xbc, 0x43, 0xca, 0xf6, 0xbd,
  0x0f, 0x0e, 0xc4, 0x3d, 0x8b, 0xb9, 0xe8, 0xbf, 0xb1, 0x52, 0x23, 0xbe,
  0x8a, 0xf9, 0xff, 0xff, 0x04, 0x00, 0x00, 0x00, 0xe0, 0x04, 0x00, 0x00,
  0x84, 0xab, 0xb5, 0xbe, 0xe7, 0x86, 0xbe, 0xbd, 0x3d, 0x61, 0x94, 0x3f,
  0x9b, 0x79, 0xf5, 0xbe, 0x4a, 0x41, 0xba, 0x3e, 0x39, 0x8e, 0xcd, 0x3b,
  0x41, 0xa1, 0x35, 0xbd, 0x32, 0x6b, 0xde, 0xbe, 0x41, 0x58, 0x43, 0xbe,
  0x65, 0x50, 0x55, 0x3e, 0x01, 0xa6, 0x9f, 0x3d, 0xd2, 0xec, 0x80, 0x3e,
  0x45, 0x5e, 0xad, 0xbc, 0x4a, 0x54, 0xf4, 0xbe, 0xef, 0x3e, 0x10, 0xbf,
  0x4a, 0x35, 0x3f, 0x3f, 0xd4, 0xa9, 0x2a, 0xbf, 0x00, 0xae, 0xd3, 0x3e,
  0x0e, 0x15, 0x54, 0xbd, 0xf1, 0x6a, 0xed, 0xbd, 0x24, 0xe7, 0x12, 0xbe,
  0x57, 0x6e, 0x7a, 0xbe, 0xab, 0x8b, 0xff, 0x3e, 0x45, 0xd9, 0x9a, 0xbd,
  0x74, 0x70, 0xab, 0x3d, 0xdc, 0x7b, 0xbf, 0xbe, 0xc4, 0xd1, 0xc4, 0x3e,
  0xb8, 0x53, 0x03, 0xbf, 0xa6, 0x9b, 0x5c, 0x3f, 0xc4, 0xd5, 0x7f, 0xbe,
  0xa2, 0x90, 0x11, 0xbf, 0x96, 0x28, 0x27, 0xbe, 0x4d, 0xc1, 0xc2, 0x3d,
  0xf3, 0x8a, 0xc6, 0xbe, 0xe8, 0x55, 0x00, 0xbf, 0xfc, 0x66, 0x0f, 0x3e,
  0xdf, 0xc0, 0xa5, 0x3e, 0x30, 0x46, 0x51, 0xbd, 0x76, 0x38, 0x99, 0x3e,
  0x84, 0x64, 0x94, 0xbf, 0xd8, 0xf9, 0x8c, 0xbe, 0x15, 0xa7, 0x07, 0x3f,
  0xd8, 0x49, 0x83, 0x3d, 0xde, 0xc3, 0xea, 0xbe, 0x71, 0x44, 0x56, 0x3e,
  0x7b, 0x98, 0xe5, 0x3e, 0x41, 0xb3, 0x61, 0x3e, 0xa1, 0x66, 0x34, 0x3e,
  0xc5, 0xc1, 0x5d, 0xbd, 0x17, 0x5f, 0x2d, 0xbf, 0xb3, 0x5c, 0x2a, 0x3e,
  0xf2, 0x0a, 0x5f, 0x3e, 0x52, 0x80, 0x91, 0xbf, 0xc3, 0xe2, 0xae, 0xbe,
  0xe1, 0xa6, 0x6a, 0x3f, 0xc5, 0x9f, 0x1f, 0x3e, 0x31, 0x03, 0xfb, 0xbe,
  0xf5, 0x3f, 0x5f, 0xbe, 0x10, 0xd3, 0x1d, 0x3c, 0x82, 0x37, 0x4d, 0x3f,
  0x8e, 0xc1, 0x4c, 0x3e, 0x60, 0x57, 0xba, 0xbe, 0x4d, 0xee, 0x61, 0xbe,
  0x7a, 0xb8, 0x75, 0x3c, 0xa5, 0x8c, 0x14, 0xbe, 0xd3, 0x6f, 0x7a, 0xbf,
  0xdd, 0xb1, 0x2b, 0xbd, 0x60, 0x8d, 0x15, 0x3e, 0xb6, 0x37, 0x92, 0x3e,
  0x79, 0xc5, 0x58, 0x3e, 0xe2, 0xda, 0xba, 0xbe, 0xf9, 0x56, 0x83, 0x3e,
  0xbc, 0x42, 0x15, 0x3f, 0xb8, 0xc5, 0x88, 0xbd, 0x5b, 0x19, 0xf0, 0xbe,
  0xcd, 0xfa, 0xee, 0xbd, 0x21, 0xec, 0xef, 0xbd, 0x99, 0xc0, 0x24, 0x3e,
  0x92, 0xfd, 0x6a, 0x3f, 0x02, 0x45, 0xcb, 0x3e, 0x64, 0xbf, 0xb4, 0xbe,
  0xf3, 0x6a, 0xcd, 0xbe, 0x5e, 0x29, 0x9d, 0xbd, 0x94, 0x5b, 0x0f, 0x3e,
  0xcd, 0x31, 0xe3, 0x3d, 0x1c, 0x90, 0x29, 0xbf, 0x8d, 0xd6, 0x25, 0xbe,
  0xab, 0xc7, 0xbb, 0x3e, 0x39, 0x00, 0x85, 0x3e, 0x46, 0xfc, 0x9a, 0x3e,
  0xb9, 0x47, 0x9f, 0xbd, 0x64, 0xea, 0xb0, 0x3e, 0x26, 0xce, 0x83, 0xbb,
  0x88, 0x99, 0x0e, 0xbf, 0x6b, 0x23, 0x6e, 0xbe, 0x56, 0x14, 0x8a, 0x3d,
  0x90, 0x7b, 0x15, 0x3e, 0x38, 0xed, 0x12, 0xbe, 0xef, 0x28, 0x60, 0xbe,
  0x1f, 0x28, 0x05, 0xbd, 0xce, 0xad, 0x52, 0x3e, 0xd4, 0x6a, 0x44, 0x3e,
  0xc0, 0xc0, 0xa2, 0xbd, 0xaa, 0x62, 0x65, 0x3e, 0x27, 0x03, 0xa8, 0xbf,
  0x5a, 0xf3, 0xc5, 0x3e, 0x64, 0x87, 0xb9, 0x3f, 0xa6, 0x92, 0x1c, 0xbf,
  0x23, 0x3e, 0x55, 0xbf, 0x25, 0xfb, 0x09, 0xbf, 0xac, 0xc4, 0x0f, 0x3f,
  0xd7, 0xa6, 0x86, 0x3e, 0x43, 0xc7, 0x8b, 0xbe, 0x12, 0x6b, 0x50, 0xbe,
  0x04, 0xc9, 0x3c, 0xbe, 0x0a, 0x6a, 0x4c, 0x3e, 0xbb, 0x9d, 0x87, 0x3e,
  0xea, 0x69, 0xa4, 0xbf, 0x6f, 0x60, 0x67, 0xbf, 0x68, 0x7a, 0x9d, 0x3e,
  0xa9, 0x4d, 0x13, 0xbf, 0x2a, 0xcb, 0x19, 0x3e, 0xe8, 0x0e, 0xeb, 0xbe,
  0x1c, 0xab, 0x16, 0x3f, 0x78, 0x38, 0x60, 0x3c, 0x53, 0x19, 0xab, 0xbe,
  0x70, 0xca, 0x72, 0x3e, 0x1e, 0x6f, 0x4d, 0x3e, 0xfb, 0xeb, 0x9c, 0xbd,
  0x53, 0xca, 0x89, 0x3e, 0xab, 0x92, 0x44, 0x3f, 0x13, 0x1b, 0xc8, 0x3e,
  0x42, 0xd7, 0x53, 0xbf, 0x0d, 0xb6, 0xb6, 0x3e, 0xad, 0xac, 0xa9, 0xbe,
  0x4e, 0xdf, 0x00, 0x3f, 0xea, 0xe1, 0x85, 0x3e, 0xc9, 0x9e, 0x0e, 0x3e,
  0x1c, 0x60, 0xcf, 0xba, 0xdb, 0x8c, 0x3f, 0xbe, 0x3f, 0x73, 0x99, 0x3e,
  0x8c, 0x5d, 0x4f, 0xbd, 0x48, 0xa5, 0x16, 0x3c, 0x1e, 0x04, 0xb6, 0xbc,
  0x7f, 0x39, 0x33, 0x3e, 0x78, 0x44, 0x48, 0xbe, 0x77, 0x6b, 0xac, 0xbe,
  0x9c, 0x8a, 0xe0, 0x3e, 0xc3, 0x84, 0xd5, 0xbe, 0x60, 0xd1, 0x38, 0x3f,
  0x30, 0xe4, 0x96, 0xbe, 0x96, 0xf0, 0xbf, 0xbb, 0xb4, 0x2a, 0xe2, 0xbe,
  0x98, 0xcb, 0x09, 0x3e, 0x2c, 0x97, 0xd9, 0xbc, 0xee, 0x14, 0xa3, 0x3e,
  0x60, 0x6d, 0x9e, 0xbe, 0x10, 0x13, 0x3c, 0x3e, 0xd0, 0x29, 0xb2, 0x3e,
  0x9f, 0x78, 0x78, 0x3f, 0x5b, 0xda, 0x02, 0xbf, 0xdb, 0xfa, 0x8a, 0xbd,
  0xd5, 0x1a, 0x80, 0xbe, 0xde, 0x09, 0xf8, 0xbe, 0x94, 0xa3, 0x38, 0xbc,
  0x26, 0x06, 0xf7, 0xbd, 0x9f, 0xc8, 0xac, 0x3d, 0xa3, 0x6f, 0xd7, 0x3d,
  0xe0, 0x1f, 0xd3, 0x3e, 0xcd, 0xd7, 0x2b, 0x3e, 0x82, 0x63, 0x8a, 0x3e,
  0x15, 0xc2, 0xab, 0x3e, 0xe8, 0x86, 0xfa, 0x3d, 0x1e, 0xeb, 0x85, 0xbd,
  0x45, 0x9e, 0x8c, 0xbe, 0x32, 0x5d, 0x21, 0xbe, 0xe5, 0x14, 0xb5, 0xbe,
  0x70, 0x89, 0x4d, 0x3e, 0xa5, 0x9c, 0x0e, 0x3d, 0xe4, 0x7d, 0xc0, 0x3d,
  0xe2, 0x2e, 0xfd, 0x3c, 0xd4, 0x94, 0x23, 0x3e, 0xfa, 0x73, 0x19, 0xbd,
  0xee, 0x62, 0x6b, 0x3e, 0x15, 0x69, 0x9e, 0x3d, 0xf5, 0x2c, 0x0c, 0x3f,
  0x2c, 0xb8, 0xc5, 0xbe, 0x00, 0x68, 0x11, 0xbf, 0x73, 0x1c, 0x4b, 0xbe,
  0xdf, 0x0e, 0xa4, 0x3e, 0x1e, 0xb8, 0x3f, 0xbe, 0xfa, 0x1b, 0xbd, 0x3e,
  0x06, 0x5d, 0x49, 0xbc, 0x77, 0x9c, 0x88, 0x3e, 0x52, 0x8d, 0x96, 0x3b,
  0x6c, 0x55, 0x11, 0x3f, 0x6e, 0xe4, 0xaa, 0x3e, 0x1f, 0x5a, 0x88, 0xbe,
  0xf6, 0x90, 0x8a, 0x3e, 0xee, 0x3a, 0xd8, 0x3c, 0x92, 0x6f, 0xcc, 0x3c,
  0x52, 0xfb, 0x6d, 0x3e, 0xf6, 0xe3, 0x06, 0x3f, 0x5f, 0xdb, 0xfe, 0xbe,
  0x98, 0x05, 0x94, 0x3d, 0x46, 0x38, 0xf9, 0xbe, 0x91, 0xeb, 0x4f, 0x3e,
  0x06, 0x3f, 0x14, 0xbe, 0x74, 0x52, 0xdc, 0x3e, 0xad, 0x61, 0xf8, 0x3e,
  0xfe, 0x46, 0xb4, 0x3e, 0xc1, 0xbe, 0x22, 0xbe, 0x6d, 0xde, 0xb7, 0x3e,
  0xaa, 0x00, 0xdc, 0xbe, 0xd6, 0x96, 0x06, 0x3f, 0x4a, 0x90, 0x52, 0x3e,
  0x60, 0x8c, 0xa0, 0xbd, 0xcf, 0xb5, 0x64, 0xbe, 0xa2, 0xf4, 0xb5, 0xbd,
  0x50, 0xf2, 0xff, 0xbe, 0xef, 0x46, 0xac, 0x3d, 0x24, 0x95, 0x69, 0x3e,
  0x75, 0x9e, 0x01, 0x3f, 0xa5, 0x75, 0xee, 0x3d, 0xf0, 0x07, 0x04, 0x3f,
  0x7a, 0xee, 0x89, 0xbd, 0x55, 0x38, 0xed, 0x3e, 0x7d, 0x7e, 0x89, 0xbe,
  0x85, 0xe1, 0xdb, 0x3e, 0x03, 0xc0, 0xcd, 0xbe, 0x7e, 0xc5, 0x78, 0xbe,
  0x5e, 0x48, 0x92, 0xbe, 0xf8, 0xca, 0xa6, 0xbe, 0xc2, 0x2c, 0x89, 0xbd,
  0x4a, 0xc4, 0x31, 0xbf, 0x67, 0xa4, 0x5f, 0x3f, 0x57, 0x72, 0x93, 0x3f,
  0x5c, 0x2f, 0xfe, 0x3e, 0xf3, 0x00, 0x88, 0x3e, 0x6d, 0xff, 0x5b, 0x3e,
  0x7a, 0x58, 0x48, 0xbe, 0x34, 0xba, 0x96, 0xbe, 0x8f, 0x7e, 0x5c, 0xbf,
  0x94, 0x70, 0x67, 0xbd, 0xc1, 0xaf, 0x8b, 0x3c, 0xe6, 0xd5, 0xe8, 0xbe,
  0x43, 0x80, 0xa3, 0x3c, 0xbb, 0x98, 0x85, 0xbf, 0x16, 0x40, 0x04, 0xbe,
  0x6e, 0x6c, 0x3e, 0x3e, 0xdf, 0x18, 0x52, 0x3e, 0x8e, 0xa3, 0x3d, 0x3d,
  0xbb, 0xa2, 0xb9, 0x3d, 0x5c, 0xa7, 0xea, 0xbe, 0x8e, 0x78, 0xe9, 0xbe,
  0x39, 0xc6, 0x27, 0xbe, 0x00, 0x29, 0xd7, 0xbd, 0x72, 0x50, 0x29, 0x3e,
  0x4e, 0xed, 0xf8, 0x3c, 0xa4, 0x05, 0xd4, 0xbd, 0xf0, 0xf2, 0xbd, 0x3d,
  0x76, 0x0b, 0x17, 0xbe, 0xfb, 0xc2, 0x19, 0xbf, 0x58, 0x93, 0x82, 0xbf,
  0x2d, 0x9b, 0xf2, 0x3e, 0x9a, 0xdb, 0x82, 0x3f, 0x11, 0x1b, 0xb9, 0x3e,
  0xaa, 0x94, 0xea, 0xbe, 0x92, 0xce, 0xf8, 0xbd, 0x1b, 0x43, 0xbc, 0xbe,
  0xfa, 0x36, 0xf0, 0x3c, 0xf4, 0x83, 0x1b, 0x3d, 0x1b, 0xf6, 0x08, 0xbe,
  0x10, 0xf0, 0x76, 0x3f, 0xd0, 0x5b, 0xf5, 0xbe, 0xb5, 0x5f, 0x0f, 0xbe,
  0xae, 0xad, 0x88, 0x3d, 0x9d, 0x3c, 0x5c, 0x3e, 0x34, 0xe7, 0xd1, 0x3e,
  0xbd, 0x68, 0x82, 0xbe, 0xea, 0x57, 0x82, 0x3d, 0xc1, 0xc9, 0x22, 0xbe,
  0x70, 0x48, 0x21, 0x3d, 0xa4, 0xca, 0xca, 0x3e, 0x38, 0x85, 0xd3, 0xbc,
  0x59, 0x91, 0xb3, 0xbe, 0x9e, 0xdf, 0x01, 0xc0, 0x85, 0xec, 0xa0, 0x3f,
  0x34, 0xfd, 0xc8, 0xbf, 0xb6, 0xcb, 0x01, 0x3f, 0x7c, 0x40, 0x8b, 0x3e,
  0xb1, 0x77, 0x13, 0xbf, 0xe3, 0x40, 0x35, 0x3e, 0x1e, 0x5b, 0x23, 0x3f,
  0xbb, 0x0e, 0x08, 0xbf, 0x01, 0x32, 0x78, 0x3e, 0x9f, 0xc9, 0x06, 0xbe,
  0xe7, 0xc8, 0xa7, 0xbe, 0xca, 0x38, 0xcd, 0x3d, 0x0c, 0x1d, 0xe1, 0xbe,
  0x73, 0x9b, 0xd1, 0xbe, 0x35, 0xeb, 0x1b, 0x3f, 0x54, 0x04, 0x35, 0x3e,
  0x81, 0xe8, 0x83, 0xbd, 0x08, 0x7f, 0xfb, 0x3c, 0xf5, 0x3a, 0x32, 0xbe,
  0x3b, 0x61, 0x8a, 0x3e, 0xf2, 0xa0, 0xab, 0xbe, 0x98, 0x21, 0x9e, 0xbe,
  0xc1, 0x29, 0xdf, 0x3d, 0xfb, 0x29, 0x07, 0x3e, 0xa3, 0xc7, 0x0f, 0x3e,
  0x76, 0xfe, 0xff, 0xff, 0x04, 0x00, 0x00, 0x00, 0x10, 0x00, 0x00, 0x00,
  0x01, 0x00, 0x00, 0x00, 0x19, 0x00, 0x00, 0x00, 0x01, 0x00, 0x00, 0x00,
  0x10, 0x00, 0x00, 0x00, 0x92, 0xfe, 0xff, 0xff, 0x04, 0x00, 0x00, 0x00,
  0x10, 0x00, 0x00, 0x00, 0x01, 0x00, 0x00, 0x00, 0x01, 0x00, 0x00, 0x00,
  0x19, 0x00, 0x00, 0x00, 0x08, 0x00, 0x00, 0x00, 0xae, 0xfe, 0xff, 0xff,
  0x04, 0x00, 0x00, 0x00, 0x10, 0x00, 0x00, 0x00, 0x01, 0x00, 0x00, 0x00,
  0x32, 0x00, 0x00, 0x00, 0x01, 0x00, 0x00, 0x00, 0x08, 0x00, 0x00, 0x00,
  0xca, 0xfe, 0xff, 0xff, 0x04, 0x00, 0x00, 0x00, 0x10, 0x00, 0x00, 0x00,
  0x01, 0x00, 0x00, 0x00, 0x01, 0x00, 0x00, 0x00, 0x32, 0x00, 0x00, 0x00,
  0x0d, 0x00, 0x00, 0x00, 0xe6, 0xfe, 0xff, 0xff, 0x04, 0x00, 0x00, 0x00,
  0x40, 0x00, 0x00, 0x00, 0x8d, 0x2a, 0xb9, 0xbf, 0x60, 0x81, 0xb0, 0xbf,
  0xca, 0x76, 0xc7, 0xbf, 0xf8, 0x63, 0xc4, 0xbe, 0x41, 0x48, 0xa1, 0xbf,
  0x13, 0x7b, 0xf1, 0xbd, 0x6c, 0xa5, 0x65, 0xbf, 0x55, 0x72, 0x22, 0xc0,
  0x11, 0x54, 0x54, 0xbf, 0x0b, 0xef, 0x31, 0xbd, 0x92, 0x0a, 0xc6, 0x3e,
  0xed, 0x14, 0x2f, 0x3d, 0x9d, 0x55, 0xdb, 0xbf, 0x6e, 0x06, 0xc8, 0xbe,
  0xd4, 0xc4, 0x7d, 0xbd, 0x92, 0x59, 0x7d, 0xbf, 0x32, 0xff, 0xff, 0xff,
  0x04, 0x00, 0x00, 0x00, 0x20, 0x00, 0x00, 0x00, 0xb5, 0x41, 0x1b, 0xc0,
  0x9e, 0x78, 0xb8, 0xbf, 0x53, 0xd3, 0x29, 0xc0, 0xb3, 0xbc, 0xeb, 0xbf,
  0xe6, 0xe0, 0x00, 0xc0, 0xcf, 0xed, 0x1e, 0xc0, 0xf1, 0x99, 0x6c, 0xbf,
  0xca, 0x01, 0x12, 0xc0, 0x64, 0xf4, 0xff, 0xff, 0x68, 0xf4, 0xff, 0xff,
  0x0f, 0x00, 0x00, 0x00, 0x4d, 0x4c, 0x49, 0x52, 0x20, 0x43, 0x6f, 0x6e,
  0x76, 0x65, 0x72, 0x74, 0x65, 0x64, 0x2e, 0x00, 0x01, 0x00, 0x00, 0x00,
  0x14, 0x00, 0x00, 0x00, 0x00, 0x00, 0x0e, 0x00, 0x18, 0x00, 0x14, 0x00,
  0x10, 0x00, 0x0c, 0x00, 0x08, 0x00, 0x04, 0x00, 0x0e, 0x00, 0x00, 0x00,
  0x14, 0x00, 0x00, 0x00, 0x1c, 0x00, 0x00, 0x00, 0x84, 0x02, 0x00, 0x00,
  0x88, 0x02, 0x00, 0x00, 0x8c, 0x02, 0x00, 0x00, 0x04, 0x00, 0x00, 0x00,
  0x6d, 0x61, 0x69, 0x6e, 0x00, 0x00, 0x00, 0x00, 0x0b, 0x00, 0x00, 0x00,
  0x48, 0x02, 0x00, 0x00, 0xec, 0x01, 0x00, 0x00, 0xb8, 0x01, 0x00, 0x00,
  0x68, 0x01, 0x00, 0x00, 0x44, 0x01, 0x00, 0x00, 0x00, 0x01, 0x00, 0x00,
  0xdc, 0x00, 0x00, 0x00, 0x9c, 0x00, 0x00, 0x00, 0x78, 0x00, 0x00, 0x00,
  0x40, 0x00, 0x00, 0x00, 0x04, 0x00, 0x00, 0x00, 0x4a, 0xfe, 0xff, 0xff,
  0x1c, 0x00, 0x00, 0x00, 0x00, 0x00, 0x00, 0x09, 0x1c, 0x00, 0x00, 0x00,
  0x20, 0x00, 0x00, 0x00, 0x04, 0x00, 0x00, 0x00, 0x00, 0x00, 0x06, 0x00,
  0x08, 0x00, 0x04, 0x00, 0x06, 0x00, 0x00, 0x00, 0x00, 0x00, 0x80, 0x3f,
  0x01, 0x00, 0x00, 0x00, 0x16, 0x00, 0x00, 0x00, 0x01, 0x00, 0x00, 0x00,
  0x15, 0x00, 0x00, 0x00, 0x82, 0xfe, 0xff, 0xff, 0x14, 0x00, 0x00, 0x00,
  0x00, 0x00, 0x00, 0x08, 0x10, 0x00, 0x00, 0x00, 0x14, 0x00, 0x00, 0x00,
  0x03, 0x00, 0x00, 0x00, 0x3c, 0xf5, 0xff, 0xff, 0x01, 0x00, 0x00, 0x00,
  0x15, 0x00, 0x00, 0x00, 0x03, 0x00, 0x00, 0x00, 0x14, 0x00, 0x00, 0x00,
  0x0b, 0x00, 0x00, 0x00, 0x09, 0x00, 0x00, 0x00, 0x5a, 0xfe, 0xff, 0xff,
  0x08, 0x00, 0x00, 0x00, 0x0c, 0x00, 0x00, 0x00, 0x01, 0x00, 0x00, 0x00,
  0x14, 0x00, 0x00, 0x00, 0x02, 0x00, 0x00, 0x00, 0x13, 0x00, 0x00, 0x00,
  0x0a, 0x00, 0x00, 0x00, 0xd6, 0xfe, 0xff, 0xff, 0x14, 0x00, 0x00, 0x00,
  0x00, 0x00, 0x00, 0x05, 0x20, 0x00, 0x00, 0x00, 0x24, 0x00, 0x00, 0x00,
  0x02, 0x00, 0x00, 0x00, 0x42, 0xff, 0xff, 0xff, 0x02, 0x00, 0x00, 0x00,
  0x01, 0x00, 0x00, 0x00, 0x02, 0x00, 0x00, 0x00, 0x01, 0x00, 0x00, 0x00,
  0x01, 0x00, 0x00, 0x00, 0x13, 0x00, 0x00, 0x00, 0x01, 0x00, 0x00, 0x00,
  0x12, 0x00, 0x00, 0x00, 0xb6, 0xfe, 0xff, 0xff, 0x08, 0x00, 0x00, 0x00,
  0x0c, 0x00, 0x00, 0x00, 0x01, 0x00, 0x00, 0x00, 0x12, 0x00, 0x00, 0x00,
  0x02, 0x00, 0x00, 0x00, 0x11, 0x00, 0x00, 0x00, 0x06, 0x00, 0x00, 0x00,
  0x32, 0xff, 0xff, 0xff, 0x14, 0x00, 0x00, 0x00, 0x00, 0x00, 0x00, 0x01,
  0x1c, 0x00, 0x00, 0x00, 0x20, 0x00, 0x00, 0x00, 0x01, 0x00, 0x00, 0x00,
  0x24, 0xff, 0xff, 0xff, 0x00, 0x00, 0x00, 0x01, 0x01, 0x00, 0x00, 0x00,
  0x01, 0x00, 0x00, 0x00, 0x01, 0x00, 0x00, 0x00, 0x11, 0x00, 0x00, 0x00,
  0x03, 0x00, 0x00, 0x00, 0x10, 0x00, 0x00, 0x00, 0x08, 0x00, 0x00, 0x00,
  0x02, 0x00, 0x00, 0x00, 0x16, 0xff, 0xff, 0xff, 0x08, 0x00, 0x00, 0x00,
  0x0c, 0x00, 0x00, 0x00, 0x01, 0x00, 0x00, 0x00, 0x10, 0x00, 0x00, 0x00,
  0x02, 0x00, 0x00, 0x00, 0x0f, 0x00, 0x00, 0x00, 0x05, 0x00, 0x00, 0x00,
  0x92, 0xff, 0xff, 0xff, 0x24, 0x00, 0x00, 0x00, 0x00, 0x00, 0x00, 0x05,
  0x30, 0x00, 0x00, 0x00, 0x34, 0x00, 0x00, 0x00, 0x02, 0x00, 0x00, 0x00,
  0x00, 0x00, 0x0e, 0x00, 0x14, 0x00, 0x00, 0x00, 0x10, 0x00, 0x0c, 0x00,
  0x08, 0x00, 0x04, 0x00, 0x0e, 0x00, 0x00, 0x00, 0x02, 0x00, 0x00, 0x00,
  0x01, 0x00, 0x00, 0x00, 0x02, 0x00, 0x00, 0x00, 0x01, 0x00, 0x00, 0x00,
  0x01, 0x00, 0x00, 0x00, 0x0f, 0x00, 0x00, 0x00, 0x01, 0x00, 0x00, 0x00,
  0x0e, 0x00, 0x00, 0x00, 0x82, 0xff, 0xff, 0xff, 0x08, 0x00, 0x00, 0x00,
  0x0c, 0x00, 0x00, 0x00, 0x01, 0x00, 0x00, 0x00, 0x0e, 0x00, 0x00, 0x00,
  0x02, 0x00, 0x00, 0x00, 0x0d, 0x00, 0x00, 0x00, 0x04, 0x00, 0x00, 0x00,
  0x00, 0x00, 0x0e, 0x00, 0x18, 0x00, 0x14, 0x00, 0x10, 0x00, 0x0c, 0x00,
  0x0b, 0x00, 0x04, 0x00, 0x0e, 0x00, 0x00, 0x00, 0x20, 0x00, 0x00, 0x00,
  0x00, 0x00, 0x00, 0x01, 0x28, 0x00, 0x00, 0x00, 0x2c, 0x00, 0x00, 0x00,
  0x01, 0x00, 0x00, 0x00, 0x0c, 0x00, 0x10, 0x00, 0x00, 0x00, 0x0c, 0x00,
  0x08, 0x00, 0x07, 0x00, 0x0c, 0x00, 0x00, 0x00, 0x00, 0x00, 0x00, 0x01,
  0x01, 0x00, 0x00, 0x00, 0x01, 0x00, 0x00, 0x00, 0x01, 0x00, 0x00, 0x00,
  0x0d, 0x00, 0x00, 0x00, 0x03, 0x00, 0x00, 0x00, 0x0c, 0x00, 0x00, 0x00,
  0x07, 0x00, 0x00, 0x00, 0x01, 0x00, 0x00, 0x00, 0x00, 0x00, 0x0a, 0x00,
  0x0c, 0x00, 0x00, 0x00, 0x08, 0x00, 0x04, 0x00, 0x0a, 0x00, 0x00, 0x00,
  0x08, 0x00, 0x00, 0x00, 0x0c, 0x00, 0x00, 0x00, 0x01, 0x00, 0x00, 0x00,
  0x0c, 0x00, 0x00, 0x00, 0x02, 0x00, 0x00, 0x00, 0x00, 0x00, 0x00, 0x00,
  0x03, 0x00, 0x00, 0x00, 0x01, 0x00, 0x00, 0x00, 0x16, 0x00, 0x00, 0x00,
  0x01, 0x00, 0x00, 0x00, 0x00, 0x00, 0x00, 0x00, 0x17, 0x00, 0x00, 0x00,
  0xac, 0x08, 0x00, 0x00, 0x3c, 0x08, 0x00, 0x00, 0xe4, 0x07, 0x00, 0x00,
  0x90, 0x07, 0x00, 0x00, 0x24, 0x07, 0x00, 0x00, 0xcc, 0x06, 0x00, 0x00,
  0x74, 0x06, 0x00, 0x00, 0x20, 0x06, 0x00, 0x00, 0xcc, 0x05, 0x00, 0x00,
  0x74, 0x05, 0x00, 0x00, 0x28, 0x05, 0x00, 0x00, 0xdc, 0x04, 0x00, 0x00,
  0x7c, 0x04, 0x00, 0x00, 0xb0, 0x03, 0x00, 0x00, 0x50, 0x03, 0x00, 0x00,
  0xf4, 0x02, 0x00, 0x00, 0x94, 0x02, 0x00, 0x00, 0xbc, 0x01, 0x00, 0x00,
  0x5c, 0x01, 0x00, 0x00, 0x00, 0x01, 0x00, 0x00, 0xb4, 0x00, 0x00, 0x00,
  0x50, 0x00, 0x00, 0x00, 0x04, 0x00, 0x00, 0x00, 0xc6, 0xf7, 0xff, 0xff,
  0x00, 0x00, 0x00, 0x01, 0x10, 0x00, 0x00, 0x00, 0x10, 0x00, 0x00, 0x00,
  0x17, 0x00, 0x00, 0x00, 0x28, 0x00, 0x00, 0x00, 0xb0, 0xf7, 0xff, 0xff,
  0x19, 0x00, 0x00, 0x00, 0x53, 0x74, 0x61, 0x74, 0x65, 0x66, 0x75, 0x6c,
  0x50, 0x61, 0x72, 0x74, 0x69, 0x74, 0x69, 0x6f, 0x6e, 0x65, 0x64, 0x43,
  0x61, 0x6c, 0x6c, 0x3a, 0x30, 0x00, 0x00, 0x00, 0x02, 0x00, 0x00, 0x00,
  0x01, 0x00, 0x00, 0x00, 0x02, 0x00, 0x00, 0x00, 0x0e, 0xf8, 0xff, 0xff,
  0x00, 0x00, 0x00, 0x01, 0x10, 0x00, 0x00, 0x00, 0x10, 0x00, 0x00, 0x00,
  0x16, 0x00, 0x00, 0x00, 0x40, 0x00, 0x00, 0x00, 0xf8, 0xf7, 0xff, 0xff,
  0x32, 0x00, 0x00, 0x00, 0x73, 0x65, 0x71, 0x75, 0x65, 0x6e, 0x74, 0x69,
  0x61, 0x6c, 0x2f, 0x79, 0x5f, 0x70, 0x72, 0x65, 0x64, 0x2f, 0x4d, 0x61,
  0x74, 0x4d, 0x75, 0x6c, 0x3b, 0x73, 0x65, 0x71, 0x75, 0x65, 0x6e, 0x74,
  0x69, 0x61, 0x6c, 0x2f, 0x79, 0x5f, 0x70, 0x72, 0x65, 0x64, 0x2f, 0x42,
  0x69, 0x61, 0x73, 0x41, 0x64, 0x64, 0x00, 0x00, 0x02, 0x00, 0x00, 0x00,
  0x01, 0x00, 0x00, 0x00, 0x02, 0x00, 0x00, 0x00, 0x6e, 0xf8, 0xff, 0xff,
  0x00, 0x00, 0x00, 0x01, 0x10, 0x00, 0x00, 0x00, 0x10, 0x00, 0x00, 0x00,
  0x15, 0x00, 0x00, 0x00, 0x28, 0x00, 0x00, 0x00, 0x58, 0xf8, 0xff, 0xff,
  0x1a, 0x00, 0x00, 0x00, 0x73, 0x65, 0x71, 0x75, 0x65, 0x6e, 0x74, 0x69,
  0x61, 0x6c, 0x2f, 0x66, 0x6c, 0x61, 0x74, 0x74, 0x65, 0x6e, 0x2f, 0x52,
  0x65, 0x73, 0x68, 0x61, 0x70, 0x65, 0x00, 0x00, 0x02, 0x00, 0x00, 0x00,
  0x01, 0x00, 0x00, 0x00, 0xd0, 0x00, 0x00, 0x00, 0xb6, 0xf8, 0xff, 0xff,
  0x00, 0x00, 0x00, 0x01, 0x10, 0x00, 0x00, 0x00, 0x10, 0x00, 0x00, 0x00,
  0x14, 0x00, 0x00, 0x00, 0x30, 0x00, 0x00, 0x00, 0xa0, 0xf8, 0xff, 0xff,
  0x22, 0x00, 0x00, 0x00, 0x73, 0x65, 0x71, 0x75, 0x65, 0x6e, 0x74, 0x69,
  0x61, 0x6c, 0x2f, 0x6d, 0x61, 0x78, 0x5f, 0x70, 0x6f, 0x6f, 0x6c, 0x69,
  0x6e, 0x67, 0x31, 0x64, 0x5f, 0x31, 0x2f, 0x4d, 0x61, 0x78, 0x50, 0x6f,
  0x6f, 0x6c, 0x00, 0x00, 0x04, 0x00, 0x00, 0x00, 0x01, 0x00, 0x00, 0x00,
  0x0d, 0x00, 0x00, 0x00, 0x01, 0x00, 0x00, 0x00, 0x10, 0x00, 0x00, 0x00,
  0x0e, 0xf9, 0xff, 0xff, 0x00, 0x00, 0x00, 0x01, 0x10, 0x00, 0x00, 0x00,
  0x10, 0x00, 0x00, 0x00, 0x13, 0x00, 0x00, 0x00, 0x34, 0x00, 0x00, 0x00,
  0xf8, 0xf8, 0xff, 0xff, 0x26, 0x00, 0x00, 0x00, 0x73, 0x65, 0x71, 0x75,
  0x65, 0x6e, 0x74, 0x69, 0x61, 0x6c, 0x2f, 0x6d, 0x61, 0x78, 0x5f, 0x70,
  0x6f, 0x6f, 0x6c, 0x69, 0x6e, 0x67, 0x31, 0x64, 0x5f, 0x31, 0x2f, 0x45,
  0x78, 0x70, 0x61, 0x6e, 0x64, 0x44, 0x69, 0x6d, 0x73, 0x31, 0x00, 0x00,
  0x04, 0x00, 0x00, 0x00, 0x01, 0x00, 0x00, 0x00, 0x19, 0x00, 0x00, 0x00,
  0x01, 0x00, 0x00, 0x00, 0x10, 0x00, 0x00, 0x00, 0x6a, 0xf9, 0xff, 0xff,
  0x00, 0x00, 0x00, 0x01, 0x10, 0x00, 0x00, 0x00, 0x10, 0x00, 0x00, 0x00,
  0x12, 0x00, 0x00, 0x00, 0xac, 0x00, 0x00, 0x00, 0x54, 0xf9, 0xff, 0xff,
  0x9d, 0x00, 0x00, 0x00, 0x73, 0x65, 0x71, 0x75, 0x65, 0x6e, 0x74, 0x69,
  0x61, 0x6c, 0x2f, 0x63, 0x6f, 0x6e, 0x76, 0x31, 0x64, 0x5f, 0x31, 0x2f,
  0x52, 0x65, 0x6c, 0x75, 0x3b, 0x73, 0x65, 0x71, 0x75, 0x65, 0x6e, 0x74,
  0x69, 0x61, 0x6c, 0x2f, 0x63, 0x6f, 0x6e, 0x76, 0x31, 0x64, 0x5f, 0x31,
  0x2f, 0x42, 0x69, 0x61, 0x73, 0x41, 0x64, 0x64, 0x3b, 0x73, 0x65, 0x71,
  0x75, 0x65, 0x6e, 0x74, 0x69, 0x61, 0x6c, 0x2f, 0x63, 0x6f, 0x6e, 0x76,
  0x31, 0x64, 0x5f, 0x31, 0x2f, 0x43, 0x6f, 0x6e, 0x76, 0x31, 0x44, 0x2f,
  0x53, 0x71, 0x75, 0x65, 0x65, 0x7a, 0x65, 0x3b, 0x73, 0x65, 0x71, 0x75,
  0x65, 0x6e, 0x74, 0x69, 0x61, 0x6c, 0x2f, 0x63, 0x6f, 0x6e, 0x76, 0x31,
  0x64, 0x5f, 0x31, 0x2f, 0x42, 0x69, 0x61, 0x73, 0x41, 0x64, 0x64, 0x2f,
  0x52, 0x65, 0x61, 0x64, 0x56, 0x61, 0x72, 0x69, 0x61, 0x62, 0x6c, 0x65,
  0x4f, 0x70, 0x3b, 0x73, 0x65, 0x71, 0x75, 0x65, 0x6e, 0x74, 0x69, 0x61,
  0x6c, 0x2f, 0x63, 0x6f, 0x6e, 0x76, 0x31, 0x64, 0x5f, 0x31, 0x2f, 0x43,
  0x6f, 0x6e, 0x76, 0x31, 0x44, 0x00, 0x00, 0x00, 0x04, 0x00, 0x00, 0x00,
  0x01, 0x00, 0x00, 0x00, 0x01, 0x00, 0x00, 0x00, 0x19, 0x00, 0x00, 0x00,
  0x10, 0x00, 0x00, 0x00, 0x3e, 0xfa, 0xff, 0xff, 0x00, 0x00, 0x00, 0x01,
  0x10, 0x00, 0x00, 0x00, 0x10, 0x00, 0x00, 0x00, 0x11, 0x00, 0x00, 0x00,
  0x34, 0x00, 0x00, 0x00, 0x28, 0xfa, 0xff, 0xff, 0x26, 0x00, 0x00, 0x00,
  0x73, 0x65, 0x71, 0x75, 0x65, 0x6e, 0x74, 0x69, 0x61, 0x6c, 0x2f, 0x63,
  0x6f, 0x6e, 0x76, 0x31, 0x64, 0x5f, 0x31, 0x2f, 0x43, 0x6f, 0x6e, 0x76,
  0x31, 0x44, 0x2f, 0x45, 0x78, 0x70, 0x61, 0x6e, 0x64, 0x44, 0x69, 0x6d,
  0x73, 0x31, 0x00, 0x00, 0x04, 0x00, 0x00, 0x00, 0x01, 0x00, 0x00, 0x00,
  0x01, 0x00, 0x00, 0x00, 0x19, 0x00, 0x00, 0x00, 0x08, 0x00, 0x00, 0x00,
  0x9a, 0xfa, 0xff, 0xff, 0x00, 0x00, 0x00, 0x01, 0x10, 0x00, 0x00, 0x00,
  0x10, 0x00, 0x00, 0x00, 0x10, 0x00, 0x00, 0x00, 0x30, 0x00, 0x00, 0x00,
  0x84, 0xfa, 0xff, 0xff, 0x20, 0x00, 0x00, 0x00, 0x73, 0x65, 0x71, 0x75,
  0x65, 0x6e, 0x74, 0x69, 0x61, 0x6c, 0x2f, 0x6d, 0x61, 0x78, 0x5f, 0x70,
  0x6f, 0x6f, 0x6c, 0x69, 0x6e, 0x67, 0x31, 0x64, 0x2f, 0x4d, 0x61, 0x78,
  0x50, 0x6f, 0x6f, 0x6c, 0x00, 0x00, 0x00, 0x00, 0x04, 0x00, 0x00, 0x00,
  0x01, 0x00, 0x00, 0x00, 0x19, 0x00, 0x00, 0x00, 0x01, 0x00, 0x00, 0x00,
  0x08, 0x00, 0x00, 0x00, 0xf2, 0xfa, 0xff, 0xff, 0x00, 0x00, 0x00, 0x01,
  0x10, 0x00, 0x00, 0x00, 0x10, 0x00, 0x00, 0x00, 0x0f, 0x00, 0x00, 0x00,
  0x34, 0x00, 0x00, 0x00, 0xdc, 0xfa, 0xff, 0xff, 0x24, 0x00, 0x00, 0x00,
  0x73, 0x65, 0x71, 0x75, 0x65, 0x6e, 0x74, 0x69, 0x61, 0x6c, 0x2f, 0x6d,
  0x61, 0x78, 0x5f, 0x70, 0x6f, 0x6f, 0x6c, 0x69, 0x6e, 0x67, 0x31, 0x64,
  0x2f, 0x45, 0x78, 0x70, 0x61, 0x6e, 0x64, 0x44, 0x69, 0x6d, 0x73, 0x31,
  0x00, 0x00, 0x00, 0x00, 0x04, 0x00, 0x00, 0x00, 0x01, 0x00, 0x00, 0x00,
  0x32, 0x00, 0x00, 0x00, 0x01, 0x00, 0x00, 0x00, 0x08, 0x00, 0x00, 0x00,
  0x4e, 0xfb, 0xff, 0xff, 0x00, 0x00, 0x00, 0x01, 0x10, 0x00, 0x00, 0x00,
  0x10, 0x00, 0x00, 0x00, 0x0e, 0x00, 0x00, 0x00, 0xa0, 0x00, 0x00, 0x00,
  0x38, 0xfb, 0xff, 0xff, 0x93, 0x00, 0x00, 0x00, 0x73, 0x65, 0x71, 0x75,
  0x65, 0x6e, 0x74, 0x69, 0x61, 0x6c, 0x2f, 0x63, 0x6f, 0x6e, 0x76, 0x31,
  0x64, 0x2f, 0x52, 0x65, 0x6c, 0x75, 0x3b, 0x73, 0x65, 0x71, 0x75, 0x65,
  0x6e, 0x74, 0x69, 0x61, 0x6c, 0x2f, 0x63, 0x6f, 0x6e, 0x76, 0x31, 0x64,
  0x2f, 0x42, 0x69, 0x61, 0x73, 0x41, 0x64, 0x64, 0x3b, 0x73, 0x65, 0x71,
  0x75, 0x65, 0x6e, 0x74, 0x69, 0x61, 0x6c, 0x2f, 0x63, 0x6f, 0x6e, 0x76,
  0x31, 0x64, 0x2f, 0x43, 0x6f, 0x6e, 0x76, 0x31, 0x44, 0x2f, 0x53, 0x71,
  0x75, 0x65, 0x65, 0x7a, 0x65, 0x3b, 0x73, 0x65, 0x71, 0x75, 0x65, 0x6e,
  0x74, 0x69, 0x61, 0x6c, 0x2f, 0x63, 0x6f, 0x6e, 0x76, 0x31, 0x64, 0x2f,
  0x42, 0x69, 0x61, 0x73, 0x41, 0x64, 0x64, 0x2f, 0x52, 0x65, 0x61, 0x64,
  0x56, 0x61, 0x72, 0x69, 0x61, 0x62, 0x6c, 0x65, 0x4f, 0x70, 0x3b, 0x73,
  0x65, 0x71, 0x75, 0x65, 0x6e, 0x74, 0x69, 0x61, 0x6c, 0x2f, 0x63, 0x6f,
  0x6e, 0x76, 0x31, 0x64, 0x2f, 0x43, 0x6f, 0x6e, 0x76, 0x31, 0x44, 0x00,
  0x04, 0x00, 0x00, 0x00, 0x01, 0x00, 0x00, 0x00, 0x01, 0x00, 0x00, 0x00,
  0x32, 0x00, 0x00, 0x00, 0x08, 0x00, 0x00, 0x00, 0x16, 0xfc, 0xff, 0xff,
  0x00, 0x00, 0x00, 0x01, 0x10, 0x00, 0x00, 0x00, 0x10, 0x00, 0x00, 0x00,
  0x0d, 0x00, 0x00, 0x00, 0x34, 0x00, 0x00, 0x00, 0x00, 0xfc, 0xff, 0xff,
  0x24, 0x00, 0x00, 0x00, 0x73, 0x65, 0x71, 0x75, 0x65, 0x6e, 0x74, 0x69,
  0x61, 0x6c, 0x2f, 0x63, 0x6f, 0x6e, 0x76, 0x31, 0x64, 0x2f, 0x43, 0x6f,
  0x6e, 0x76, 0x31, 0x44, 0x2f, 0x45, 0x78, 0x70, 0x61, 0x6e, 0x64, 0x44,
  0x69, 0x6d, 0x73, 0x31, 0x00, 0x00, 0x00, 0x00, 0x04, 0x00, 0x00, 0x00,
  0x01, 0x00, 0x00, 0x00, 0x01, 0x00, 0x00, 0x00, 0x32, 0x00, 0x00, 0x00,
  0x0d, 0x00, 0x00, 0x00, 0x72, 0xfc, 0xff, 0xff, 0x00, 0x00, 0x00, 0x01,
  0x10, 0x00, 0x00, 0x00, 0x10, 0x00, 0x00, 0x00, 0x0c, 0x00, 0x00, 0x00,
  0x28, 0x00, 0x00, 0x00, 0x5c, 0xfc, 0xff, 0xff, 0x18, 0x00, 0x00, 0x00,
  0x73, 0x65, 0x71, 0x75, 0x65, 0x6e, 0x74, 0x69, 0x61, 0x6c, 0x2f, 0x79,
  0x5f, 0x70, 0x72, 0x65, 0x64, 0x2f, 0x4d, 0x61, 0x74, 0x4d, 0x75, 0x6c,
  0x00, 0x00, 0x00, 0x00, 0x02, 0x00, 0x00, 0x00, 0x02, 0x00, 0x00, 0x00,
  0xd0, 0x00, 0x00, 0x00, 0xca, 0xfd, 0xff, 0xff, 0x00, 0x00, 0x00, 0x01,
  0x14, 0x00, 0x00, 0x00, 0x14, 0x00, 0x00, 0x00, 0x0b, 0x00, 0x00, 0x00,
  0x00, 0x00, 0x00, 0x02, 0x28, 0x00, 0x00, 0x00, 0xa8, 0xfc, 0xff, 0xff,
  0x18, 0x00, 0x00, 0x00, 0x73, 0x65, 0x71, 0x75, 0x65, 0x6e, 0x74, 0x69,
  0x61, 0x6c, 0x2f, 0x66, 0x6c, 0x61, 0x74, 0x74, 0x65, 0x6e, 0x2f, 0x43,
  0x6f, 0x6e, 0x73, 0x74, 0x00, 0x00, 0x00, 0x00, 0x01, 0x00, 0x00, 0x00,
  0x02, 0x00, 0x00, 0x00, 0x02, 0xfd, 0xff, 0xff, 0x00, 0x00, 0x00, 0x01,
  0x10, 0x00, 0x00, 0x00, 0x10, 0x00, 0x00, 0x00, 0x0a, 0x00, 0x00, 0x00,
  0x38, 0x00, 0x00, 0x00, 0xec, 0xfc, 0xff, 0xff, 0x28, 0x00, 0x00, 0x00,
  0x73, 0x65, 0x71, 0x75, 0x65, 0x6e, 0x74, 0x69, 0x61, 0x6c, 0x2f, 0x79,
  0x5f, 0x70, 0x72, 0x65, 0x64, 0x2f, 0x42, 0x69, 0x61, 0x73, 0x41, 0x64,
  0x64, 0x2f, 0x52, 0x65, 0x61, 0x64, 0x56, 0x61, 0x72, 0x69, 0x61, 0x62,
  0x6c, 0x65, 0x4f, 0x70, 0x00, 0x00, 0x00, 0x00, 0x01, 0x00, 0x00, 0x00,
  0x02, 0x00, 0x00, 0x00, 0x56, 0xfd, 0xff, 0xff, 0x00, 0x00, 0x00, 0x01,
  0x10, 0x00, 0x00, 0x00, 0x10, 0x00, 0x00, 0x00, 0x09, 0x00, 0x00, 0x00,
  0x28, 0x00, 0x00, 0x00, 0x40, 0xfd, 0xff, 0xff, 0x1a, 0x00, 0x00, 0x00,
  0x73, 0x65, 0x71, 0x75, 0x65, 0x6e, 0x74, 0x69, 0x61, 0x6c, 0x2f, 0x63,
  0x6f, 0x6e, 0x76, 0x31, 0x64, 0x5f, 0x31, 0x2f, 0x43, 0x6f, 0x6e, 0x76,
  0x31, 0x44, 0x00, 0x00, 0x04, 0x00, 0x00, 0x00, 0x10, 0x00, 0x00, 0x00,
  0x01, 0x00, 0x00, 0x00, 0x03, 0x00, 0x00, 0x00, 0x08, 0x00, 0x00, 0x00,
  0xa6, 0xfd, 0xff, 0xff, 0x00, 0x00, 0x00, 0x01, 0x10, 0x00, 0x00, 0x00,
  0x10, 0x00, 0x00, 0x00, 0x08, 0x00, 0x00, 0x00, 0x28, 0x00, 0x00, 0x00,
  0x90, 0xfd, 0xff, 0xff, 0x18, 0x00, 0x00, 0x00, 0x73, 0x65, 0x71, 0x75,
  0x65, 0x6e, 0x74, 0x69, 0x61, 0x6c, 0x2f, 0x63, 0x6f, 0x6e, 0x76, 0x31,
  0x64, 0x2f, 0x43, 0x6f, 0x6e, 0x76, 0x31, 0x44, 0x00, 0x00, 0x00, 0x00,
  0x04, 0x00, 0x00, 0x00, 0x08, 0x00, 0x00, 0x00, 0x01, 0x00, 0x00, 0x00,
  0x03, 0x00, 0x00, 0x00, 0x0d, 0x00, 0x00, 0x00, 0x06, 0xff, 0xff, 0xff,
  0x00, 0x00, 0x00, 0x01, 0x14, 0x00, 0x00, 0x00, 0x14, 0x00, 0x00, 0x00,
  0x07, 0x00, 0x00, 0x00, 0x00, 0x00, 0x00, 0x02, 0x34, 0x00, 0x00, 0x00,
  0xe4, 0xfd, 0xff, 0xff, 0x25, 0x00, 0x00, 0x00, 0x73, 0x65, 0x71, 0x75,
  0x65, 0x6e, 0x74, 0x69, 0x61, 0x6c, 0x2f, 0x6d, 0x61, 0x78, 0x5f, 0x70,
  0x6f, 0x6f, 0x6c, 0x69, 0x6e, 0x67, 0x31, 0x64, 0x5f, 0x31, 0x2f, 0x45,
  0x78, 0x70, 0x61, 0x6e, 0x64, 0x44, 0x69, 0x6d, 0x73, 0x00, 0x00, 0x00,
  0x01, 0x00, 0x00, 0x00, 0x04, 0x00, 0x00, 0x00, 0x5a, 0xff, 0xff, 0xff,
  0x00, 0x00, 0x00, 0x01, 0x14, 0x00, 0x00, 0x00, 0x14, 0x00, 0x00, 0x00,
  0x06, 0x00, 0x00, 0x00, 0x00, 0x00, 0x00, 0x02, 0x34, 0x00, 0x00, 0x00,
  0x38, 0xfe, 0xff, 0xff, 0x25, 0x00, 0x00, 0x00, 0x73, 0x65, 0x71, 0x75,
  0x65, 0x6e, 0x74, 0x69, 0x61, 0x6c, 0x2f, 0x63, 0x6f, 0x6e, 0x76, 0x31,
  0x64, 0x5f, 0x31, 0x2f, 0x43, 0x6f, 0x6e, 0x76, 0x31, 0x44, 0x2f, 0x45,
  0x78, 0x70, 0x61, 0x6e, 0x64, 0x44, 0x69, 0x6d, 0x73, 0x00, 0x00, 0x00,
  0x01, 0x00, 0x00, 0x00, 0x04, 0x00, 0x00, 0x00, 0xae, 0xff, 0xff, 0xff,
  0x00, 0x00, 0x00, 0x01, 0x14, 0x00, 0x00, 0x00, 0x14, 0x00, 0x00, 0x00,
  0x05, 0x00, 0x00, 0x00, 0x00, 0x00, 0x00, 0x02, 0x30, 0x00, 0x00, 0x00,
  0x8c, 0xfe, 0xff, 0xff, 0x23, 0x00, 0x00, 0x00, 0x73, 0x65, 0x71, 0x75,
  0x65, 0x6e, 0x74, 0x69, 0x61, 0x6c, 0x2f, 0x6d, 0x61, 0x78, 0x5f, 0x70,
  0x6f, 0x6f, 0x6c, 0x69, 0x6e, 0x67, 0x31, 0x64, 0x2f, 0x45, 0x78, 0x70,
  0x61, 0x6e, 0x64, 0x44, 0x69, 0x6d, 0x73, 0x00, 0x01, 0x00, 0x00, 0x00,
  0x04, 0x00, 0x00, 0x00, 0x00, 0x00, 0x16, 0x00, 0x1c, 0x00, 0x18, 0x00,
  0x17, 0x00, 0x10, 0x00, 0x0c, 0x00, 0x08, 0x00, 0x00, 0x00, 0x00, 0x00,
  0x00, 0x00, 0x07, 0x00, 0x16, 0x00, 0x00, 0x00, 0x00, 0x00, 0x00, 0x01,
  0x14, 0x00, 0x00, 0x00, 0x14, 0x00, 0x00, 0x00, 0x04, 0x00, 0x00, 0x00,
  0x00, 0x00, 0x00, 0x02, 0x30, 0x00, 0x00, 0x00, 0xf4, 0xfe, 0xff, 0xff,
  0x23, 0x00, 0x00, 0x00, 0x73, 0x65, 0x71, 0x75, 0x65, 0x6e, 0x74, 0x69,
  0x61, 0x6c, 0x2f, 0x63, 0x6f, 0x6e, 0x76, 0x31, 0x64, 0x2f, 0x43, 0x6f,
  0x6e, 0x76, 0x31, 0x44, 0x2f, 0x45, 0x78, 0x70, 0x61, 0x6e, 0x64, 0x44,
  0x69, 0x6d, 0x73, 0x00, 0x01, 0x00, 0x00, 0x00, 0x04, 0x00, 0x00, 0x00,
  0x56, 0xff, 0xff, 0xff, 0x00, 0x00, 0x00, 0x01, 0x10, 0x00, 0x00, 0x00,
  0x10, 0x00, 0x00, 0x00, 0x03, 0x00, 0x00, 0x00, 0x38, 0x00, 0x00, 0x00,
  0x40, 0xff, 0xff, 0xff, 0x2a, 0x00, 0x00, 0x00, 0x73, 0x65, 0x71, 0x75,
  0x65, 0x6e, 0x74, 0x69, 0x61, 0x6c, 0x2f, 0x63, 0x6f, 0x6e, 0x76, 0x31,
  0x64, 0x5f, 0x31, 0x2f, 0x42, 0x69, 0x61, 0x73, 0x41, 0x64, 0x64, 0x2f,
  0x52, 0x65, 0x61, 0x64, 0x56, 0x61, 0x72, 0x69, 0x61, 0x62, 0x6c, 0x65,
  0x4f, 0x70, 0x00, 0x00, 0x01, 0x00, 0x00, 0x00, 0x10, 0x00, 0x00, 0x00,
  0xaa, 0xff, 0xff, 0xff, 0x00, 0x00, 0x00, 0x01, 0x10, 0x00, 0x00, 0x00,
  0x10, 0x00, 0x00, 0x00, 0x02, 0x00, 0x00, 0x00, 0x38, 0x00, 0x00, 0x00,
  0x94, 0xff, 0xff, 0xff, 0x28, 0x00, 0x00, 0x00, 0x73, 0x65, 0x71, 0x75,
  0x65, 0x6e, 0x74, 0x69, 0x61, 0x6c, 0x2f, 0x63, 0x6f, 0x6e, 0x76, 0x31,
  0x64, 0x2f, 0x42, 0x69, 0x61, 0x73, 0x41, 0x64, 0x64, 0x2f, 0x52, 0x65,
  0x61, 0x64, 0x56, 0x61, 0x72, 0x69, 0x61, 0x62, 0x6c, 0x65, 0x4f, 0x70,
  0x00, 0x00, 0x00, 0x00, 0x01, 0x00, 0x00, 0x00, 0x08, 0x00, 0x00, 0x00,
  0x00, 0x00, 0x16, 0x00, 0x18, 0x00, 0x14, 0x00, 0x00, 0x00, 0x10, 0x00,
  0x0c, 0x00, 0x08, 0x00, 0x00, 0x00, 0x00, 0x00, 0x00, 0x00, 0x07, 0x00,
  0x16, 0x00, 0x00, 0x00, 0x00, 0x00, 0x00, 0x01, 0x14, 0x00, 0x00, 0x00,
  0x14, 0x00, 0x00, 0x00, 0x01, 0x00, 0x00, 0x00, 0x24, 0x00, 0x00, 0x00,
  0x04, 0x00, 0x04, 0x00, 0x04, 0x00, 0x00, 0x00, 0x13, 0x00, 0x00, 0x00,
  0x73, 0x65, 0x72, 0x76, 0x69, 0x6e, 0x67, 0x5f, 0x64, 0x65, 0x66, 0x61,
  0x75, 0x6c, 0x74, 0x5f, 0x78, 0x3a, 0x30, 0x00, 0x02, 0x00, 0x00, 0x00,
  0x01, 0x00, 0x00, 0x00, 0x8a, 0x02, 0x00, 0x00, 0x05, 0x00, 0x00, 0x00,
  0x50, 0x00, 0x00, 0x00, 0x34, 0x00, 0x00, 0x00, 0x24, 0x00, 0x00, 0x00,
  0x14, 0x00, 0x00, 0x00, 0x04, 0x00, 0x00, 0x00, 0xd0, 0xff, 0xff, 0xff,
  0x19, 0x00, 0x00, 0x00, 0x00, 0x00, 0x00, 0x19, 0xdc, 0xff, 0xff, 0xff,
  0x09, 0x00, 0x00, 0x00, 0x00, 0x00, 0x00, 0x09, 0xe8, 0xff, 0xff, 0xff,
  0x11, 0x00, 0x00, 0x00, 0x00, 0x00, 0x00, 0x11, 0xf4, 0xff, 0xff, 0xff,
  0x03, 0x00, 0x00, 0x00, 0x00, 0x00, 0x00, 0x03, 0x0c, 0x00, 0x0c, 0x00,
  0x0b, 0x00, 0x00, 0x00, 0x00, 0x00, 0x04, 0x00, 0x0c, 0x00, 0x00, 0x00,
  0x16, 0x00, 0x00, 0x00, 0x00, 0x00, 0x00, 0x16
};
unsigned int tflite_learn_3_len = 8420;
#endif // _EI_CLASSIFIER_TFLITE_LEARN_3_H_
